<unk>	0
<s>	0
</s>	0
[MASK]	0
[PAD]	0
▁the	-2.90348
▁of	-3.42035
▁one	-3.58403
▁zero	-3.78793
▁	-3.8208
▁and	-3.84074
▁in	-3.98287
▁a	-4.04419
▁two	-4.0645
▁to	-4.18953
▁nine	-4.18964
▁is	-4.43853
▁eight	-4.51509
▁three	-4.52025
▁four	-4.53594
▁five	-4.53867
▁six	-4.66384
s	-4.74686
▁seven	-4.7979
▁for	-4.96677
▁s	-5.02469
▁are	-5.08454
▁as	-5.10577
▁was	-5.14459
▁with	-5.27823
▁by	-5.2835
▁from	-5.3624
▁on	-5.42082
▁that	-5.42616
▁or	-5.54558
▁it	-5.55901
▁at	-5.75514
▁an	-5.78918
▁he	-5.81252
▁his	-5.81297
▁be	-5.9343
▁have	-5.94695
▁which	-5.9677
▁this	-6.02598
▁there	-6.08947
▁age	-6.17208
▁also	-6.20763
▁has	-6.27725
▁population	-6.28365
▁not	-6.3308
▁were	-6.34799
▁who	-6.38546
▁had	-6.45534
▁other	-6.45554
▁but	-6.48055
▁all	-6.53844
▁years	-6.5468
▁km	-6.5634
▁out	-6.57388
▁new	-6.57827
▁under	-6.59268
▁mi	-6.59625
▁their	-6.59868
▁city	-6.60934
▁more	-6.62816
▁first	-6.63362
▁american	-6.66025
▁county	-6.67535
▁its	-6.68256
▁living	-6.70891
ing	-6.70943
▁they	-6.70962
▁income	-6.80698
▁some	-6.82128
▁median	-6.83724
▁been	-6.845
▁can	-6.84793
ed	-6.84889
e	-6.85027
▁no	-6.86022
▁total	-6.86699
▁i	-6.8699
▁after	-6.87074
▁most	-6.89172
▁e	-6.90373
▁over	-6.92255
▁united	-6.94334
▁when	-6.94873
▁many	-6.95839
▁people	-6.96313
▁states	-6.96805
▁time	-6.96935
▁up	-6.98076
▁may	-6.99638
▁census	-7.00342
▁into	-7.02287
a	-7.02356
▁used	-7.02377
▁such	-7.02509
▁see	-7.03033
▁town	-7.03321
▁average	-7.04013
▁older	-7.06258
▁d	-7.06448
▁area	-7.06619
▁families	-7.07206
▁only	-7.09405
▁family	-7.10259
▁those	-7.10348
▁males	-7.10449
▁line	-7.10902
▁females	-7.11293
▁households	-7.12638
▁made	-7.13246
▁her	-7.13629
▁world	-7.16829
▁m	-7.17393
y	-7.18002
▁b	-7.18489
▁them	-7.19643
▁these	-7.20352
▁than	-7.21184
▁would	-7.22045
▁any	-7.23343
d	-7.23656
▁war	-7.23698
▁every	-7.24601
▁re	-7.24874
▁c	-7.27324
▁t	-7.27982
▁during	-7.2831
▁external	-7.30455
▁north	-7.31198
▁known	-7.31443
▁about	-7.31474
▁th	-7.31902
i	-7.31932
▁water	-7.32134
▁de	-7.3298
▁links	-7.33343
▁below	-7.34513
▁size	-7.34925
▁state	-7.36992
▁between	-7.37676
▁however	-7.3828
▁located	-7.38305
▁so	-7.38619
▁she	-7.38857
▁ma	-7.39632
er	-7.40222
▁u	-7.424
▁n	-7.43136
▁name	-7.4364
o	-7.43869
▁if	-7.44724
▁where	-7.4629
▁density	-7.46763
▁history	-7.46864
▁part	-7.47884
n	-7.48263
▁called	-7.48686
or	-7.49227
▁household	-7.49229
ly	-7.49389
▁races	-7.50033
▁will	-7.50561
▁west	-7.50766
▁poverty	-7.51252
▁him	-7.51374
▁use	-7.51427
▁g	-7.53006
▁well	-7.53743
▁white	-7.53959
▁later	-7.54614
▁being	-7.54659
▁non	-7.54994
▁then	-7.55973
▁while	-7.57357
▁land	-7.60335
▁often	-7.60385
▁both	-7.61403
▁university	-7.61416
▁f	-7.62563
▁south	-7.63215
▁system	-7.6403
▁p	-7.64135
es	-7.64289
▁per	-7.64727
▁became	-7.65173
ohn	-7.65178
▁number	-7.65565
▁r	-7.66168
▁year	-7.66184
▁government	-7.66725
r	-7.67291
▁through	-7.67498
▁x	-7.68519
▁children	-7.69013
▁present	-7.69528
▁national	-7.69606
▁township	-7.69742
▁according	-7.71976
▁like	-7.72996
▁since	-7.74237
▁school	-7.74765
▁early	-7.75152
▁high	-7.75478
▁life	-7.76794
▁british	-7.768
▁century	-7.76803
▁general	-7.77145
▁english	-7.77306
▁l	-7.77616
▁because	-7.78244
▁music	-7.78677
▁several	-7.79122
▁st	-7.80022
▁same	-7.80818
▁including	-7.81233
▁together	-7.8132
▁work	-7.81356
▁before	-7.81357
▁series	-7.81947
▁king	-7.82268
▁now	-7.8333
▁k	-7.83489
▁film	-7.84367
▁each	-7.8549
▁you	-7.85662
▁very	-7.85798
▁do	-7.86228
ect	-7.87557
▁second	-7.88098
▁long	-7.88233
▁married	-7.8851
▁even	-7.88609
▁day	-7.88707
▁although	-7.9032
▁african	-7.90559
▁female	-7.91011
▁village	-7.91548
▁h	-7.91927
us	-7.92118
an	-7.92147
▁v	-7.92222
▁native	-7.92799
▁born	-7.92857
▁race	-7.92904
▁york	-7.92962
▁list	-7.93203
▁much	-7.93484
▁against	-7.93534
t	-7.94304
▁group	-7.94578
▁public	-7.94813
▁french	-7.95011
▁man	-7.95733
▁form	-7.95854
▁until	-7.96243
▁could	-7.96574
▁what	-7.97099
▁large	-7.97158
▁great	-7.97184
▁end	-7.98266
▁units	-7.9871
▁based	-7.98916
▁another	-7.9901
▁game	-7.99355
▁w	-7.99637
▁power	-7.99926
ue	-8.00404
▁pacific	-8.00728
▁party	-8.00873
▁o	-8.01563
▁example	-8.01649
▁still	-8.01873
▁pro	-8.02398
▁we	-8.02432
▁river	-8.03773
▁ii	-8.04426
▁us	-8.04717
▁individuals	-8.0493
al	-8.05054
▁spread	-8.05157
▁black	-8.05904
▁alone	-8.06264
▁husband	-8.06743
▁set	-8.07422
▁geography	-8.07759
▁law	-8.07779
▁east	-8.08251
▁place	-8.08364
▁someone	-8.08376
▁german	-8.08984
▁own	-8.09018
▁best	-8.09183
▁asian	-8.09885
▁small	-8.09952
▁found	-8.10207
▁around	-8.10654
▁book	-8.11557
▁bureau	-8.11984
▁death	-8.12014
▁old	-8.12164
▁housing	-8.12226
▁home	-8.12407
▁international	-8.12773
▁president	-8.13188
▁left	-8.13745
▁order	-8.13997
▁language	-8.14084
man	-8.14106
▁racial	-8.14911
▁different	-8.15007
▁back	-8.15103
▁main	-8.15181
▁term	-8.15204
▁house	-8.15726
▁way	-8.15786
▁following	-8.16012
▁did	-8.16677
▁air	-8.16754
▁show	-8.16805
▁demographics	-8.1701
ust	-8.17374
▁common	-8.17572
▁versus	-8.18058
in	-8.18923
▁capita	-8.19036
▁modern	-8.19626
▁hispanic	-8.19954
▁couples	-8.19984
▁la	-8.2009
▁usually	-8.20133
▁image	-8.20313
▁makeup	-8.20668
▁country	-8.20799
▁include	-8.20982
▁named	-8.21098
▁point	-8.21141
▁latino	-8.21675
▁residing	-8.2173
on	-8.21759
▁political	-8.21765
▁islander	-8.21994
▁though	-8.22448
en	-8.22522
▁church	-8.2265
▁householder	-8.22813
▁popular	-8.23222
▁cdp	-8.23355
▁within	-8.23426
u	-8.23879
▁due	-8.24079
▁last	-8.24453
une	-8.26466
▁band	-8.26952
▁members	-8.27159
▁official	-8.28399
▁march	-8.28461
▁right	-8.28675
▁sub	-8.28742
▁down	-8.29052
anuary	-8.30355
▁original	-8.30628
▁make	-8.31729
▁men	-8.31876
ers	-8.319
▁military	-8.32068
▁among	-8.32305
▁battle	-8.32451
▁off	-8.32965
▁using	-8.33016
▁company	-8.33463
▁cities	-8.3371
▁times	-8.34277
▁island	-8.34691
▁began	-8.35074
▁london	-8.35289
▁bc	-8.35773
▁given	-8.35995
▁considered	-8.36064
▁free	-8.36198
▁article	-8.36248
▁album	-8.3698
▁version	-8.37126
▁information	-8.37401
▁site	-8.37402
▁without	-8.38112
▁college	-8.38254
▁location	-8.3866
▁england	-8.38733
▁released	-8.38968
▁france	-8.39285
▁son	-8.39356
▁local	-8.3961
▁become	-8.39665
uly	-8.39913
▁human	-8.40174
▁october	-8.40284
▁september	-8.40974
▁ob	-8.4116
▁army	-8.41191
▁should	-8.41209
▁roman	-8.41321
▁important	-8.41365
▁service	-8.41487
▁god	-8.41544
▁december	-8.41615
▁sometimes	-8.41844
▁red	-8.4242
▁few	-8.42489
ames	-8.42601
▁william	-8.42751
▁near	-8.43236
▁center	-8.43626
▁me	-8.43867
▁august	-8.44149
▁former	-8.44188
▁my	-8.443
▁head	-8.44469
▁along	-8.4477
▁western	-8.44781
▁single	-8.45112
▁led	-8.45372
▁april	-8.46126
▁park	-8.46916
▁central	-8.47055
▁november	-8.47323
▁various	-8.47342
▁go	-8.4741
▁died	-8.47945
▁space	-8.48141
▁co	-8.48186
l	-8.48421
▁case	-8.48453
▁period	-8.4855
▁february	-8.48705
▁al	-8.48951
▁short	-8.49181
ic	-8.49193
▁control	-8.4958
▁george	-8.49848
▁less	-8.49902
▁late	-8.49968
▁sea	-8.5024
▁star	-8.50259
▁america	-8.50337
▁earth	-8.50419
▁word	-8.50453
▁art	-8.50537
▁union	-8.50577
▁rock	-8.5066
▁un	-8.50662
▁similar	-8.50891
▁television	-8.51021
▁does	-8.51319
▁took	-8.51454
▁force	-8.51544
▁how	-8.51658
▁theory	-8.51981
▁said	-8.52148
▁district	-8.52274
▁games	-8.52532
ism	-8.52535
▁team	-8.52691
▁court	-8.52941
▁little	-8.52979
▁thus	-8.53047
▁published	-8.53132
ton	-8.53301
▁must	-8.53404
▁take	-8.53415
▁character	-8.53793
▁never	-8.53893
▁good	-8.54084
▁science	-8.54111
▁computer	-8.54435
▁side	-8.54492
▁isbn	-8.54668
▁created	-8.54787
▁built	-8.54934
▁support	-8.55013
▁development	-8.55045
k	-8.55305
▁player	-8.55518
▁written	-8.55537
▁fre	-8.55944
▁father	-8.55959
▁famous	-8.56983
▁y	-8.57007
▁others	-8.57376
▁works	-8.57452
▁song	-8.57544
▁com	-8.57574
▁act	-8.57739
▁held	-8.58009
is	-8.58058
▁third	-8.58316
▁z	-8.58503
▁lake	-8.58643
▁community	-8.58783
▁european	-8.5909
▁again	-8.59396
▁systems	-8.5954
▁canada	-8.60112
▁generally	-8.60257
▁open	-8.60527
▁play	-8.60594
▁kingdom	-8.60728
▁far	-8.6076
▁births	-8.60767
▁field	-8.60857
ia	-8.60975
▁story	-8.61154
▁groups	-8.61617
▁came	-8.61679
▁himself	-8.61825
▁san	-8.61924
▁social	-8.62043
▁rather	-8.6214
▁radio	-8.62213
▁minister	-8.63162
▁anti	-8.63544
▁either	-8.63752
▁california	-8.63797
▁body	-8.63823
h	-8.63871
▁council	-8.64002
▁light	-8.64151
▁having	-8.64242
▁member	-8.64252
▁top	-8.64459
▁page	-8.64474
▁class	-8.64721
▁uk	-8.6473
▁once	-8.65044
▁today	-8.6576
▁ad	-8.65791
c	-8.6618
▁northern	-8.66394
▁seen	-8.66631
▁role	-8.66641
▁books	-8.66727
▁europe	-8.66846
▁live	-8.66893
▁current	-8.67045
▁charles	-8.67078
▁references	-8.67236
▁germany	-8.67315
▁se	-8.67454
▁special	-8.67486
▁covered	-8.67743
▁played	-8.67878
▁website	-8.67967
▁fact	-8.68251
▁further	-8.68392
▁society	-8.68545
▁royal	-8.68895
▁title	-8.69124
▁level	-8.69288
▁standard	-8.69372
▁forces	-8.6941
apanese	-8.69532
▁region	-8.69551
▁full	-8.69734
▁next	-8.70562
▁type	-8.70679
▁million	-8.70816
▁source	-8.70877
▁result	-8.71089
et	-8.71134
▁countries	-8.71149
▁won	-8.71356
▁real	-8.71668
▁upon	-8.71764
▁especially	-8.71886
▁china	-8.71899
▁none	-8.72323
▁young	-8.72733
▁con	-8.72806
▁robert	-8.73004
▁love	-8.73691
▁paul	-8.73884
▁style	-8.74347
▁republic	-8.74368
▁production	-8.74431
▁means	-8.74551
▁person	-8.74602
▁data	-8.74661
▁largest	-8.75219
▁league	-8.75259
▁areas	-8.75292
▁car	-8.7543
▁deaths	-8.75513
▁texas	-8.75679
▁days	-8.76195
▁middle	-8.7632
▁en	-8.76489
▁process	-8.76595
▁chinese	-8.76728
▁hand	-8.76842
▁christian	-8.76951
▁le	-8.77342
▁developed	-8.7738
▁possible	-8.77399
▁above	-8.77399
ian	-8.77565
▁david	-8.77699
▁almost	-8.77757
▁office	-8.77804
▁season	-8.78055
▁towns	-8.78091
▁produced	-8.78097
▁press	-8.78213
▁established	-8.78368
▁events	-8.78734
▁research	-8.78792
▁making	-8.78821
▁greek	-8.79059
▁itself	-8.79429
▁included	-8.79941
▁empire	-8.80341
▁post	-8.80694
▁women	-8.80714
▁washington	-8.80816
▁culture	-8.81114
▁design	-8.81436
▁available	-8.81584
▁movie	-8.81676
▁half	-8.81718
▁movement	-8.82074
▁run	-8.82151
▁final	-8.82209
▁henry	-8.82354
m	-8.82392
▁taken	-8.82534
▁southern	-8.83023
▁originally	-8.83326
um	-8.83764
▁low	-8.83764
▁record	-8.83944
▁green	-8.84151
▁program	-8.84468
▁position	-8.85107
▁lost	-8.85223
os	-8.85553
▁natural	-8.85751
apan	-8.85955
p	-8.85982
z	-8.86218
ects	-8.86295
▁australia	-8.86461
▁civil	-8.86637
▁fire	-8.86648
▁capital	-8.86992
ist	-8.87215
able	-8.87379
▁airport	-8.87493
▁here	-8.87537
▁actor	-8.87783
▁languages	-8.87824
▁code	-8.87903
uently	-8.8859
▁education	-8.8861
▁map	-8.88816
▁instead	-8.88882
▁eastern	-8.89077
▁related	-8.8949
▁station	-8.89503
▁road	-8.89573
▁pre	-8.89682
▁change	-8.89763
▁view	-8.90016
▁formed	-8.90389
im	-8.90431
▁building	-8.90506
▁species	-8.90561
le	-8.90585
▁prime	-8.91056
▁street	-8.91092
▁received	-8.91266
▁economic	-8.91346
▁user	-8.91526
▁mar	-8.91662
▁went	-8.92216
▁films	-8.92307
▁ancient	-8.92316
▁get	-8.92386
▁lord	-8.925
▁places	-8.92536
▁characters	-8.9269
▁thomas	-8.92837
▁range	-8.92966
f	-8.93107
▁certain	-8.93487
▁spanish	-8.93604
▁hall	-8.93836
▁students	-8.93894
▁business	-8.94149
▁founded	-8.94174
▁sound	-8.94177
▁rights	-8.94562
▁night	-8.94797
▁eventually	-8.94816
▁http	-8.95076
▁least	-8.95129
▁tv	-8.95176
▁model	-8.95363
▁pennsylvania	-8.95416
▁parts	-8.95712
▁canadian	-8.95853
uired	-8.95918
▁your	-8.96001
▁terms	-8.96205
▁soviet	-8.96444
▁video	-8.96731
▁continued	-8.96831
▁network	-8.97145
▁aircraft	-8.97147
▁emperor	-8.97283
▁whose	-8.97454
▁always	-8.97791
▁energy	-8.97929
▁news	-8.98151
▁career	-8.98182
▁come	-8.98211
▁religious	-8.98279
ie	-8.98389
▁saint	-8.98389
land	-8.98434
▁addition	-8.9844
▁richard	-8.98636
▁records	-8.98664
▁words	-8.98756
▁mother	-8.99226
ueen	-8.99549
▁traditional	-8.99562
ville	-8.9963
▁particular	-8.9974
▁trade	-9.00076
▁author	-9.00091
▁big	-9.00312
ar	-9.00347
▁blue	-9.00382
▁wrote	-9.00459
▁market	-9.00484
▁attack	-9.00921
▁uploaded	-9.01158
▁release	-9.01471
▁text	-9.01745
▁software	-9.01837
na	-9.02268
▁lower	-9.02473
▁historical	-9.02508
▁action	-9.02533
▁too	-9.0259
▁dr	-9.02595
▁thought	-9.02687
▁india	-9.02722
▁soon	-9.02735
▁ever	-9.02772
▁note	-9.02807
▁served	-9.02848
x	-9.02929
ta	-9.03177
▁nature	-9.03384
▁self	-9.03438
▁might	-9.03507
▁foreign	-9.0359
▁don	-9.03625
▁meaning	-9.03663
▁prince	-9.03782
▁throughout	-9.03865
▁moved	-9.04017
ness	-9.04046
▁return	-9.0409
▁football	-9.04207
▁www	-9.04465
▁numbers	-9.04556
▁independent	-9.04613
▁our	-9.04635
▁study	-9.04784
ch	-9.04796
▁future	-9.04852
▁lead	-9.04985
▁away	-9.05065
▁effect	-9.05084
▁put	-9.05225
▁base	-9.05662
▁michael	-9.0567
▁leader	-9.05778
▁recent	-9.05845
▁federal	-9.06195
▁wife	-9.06327
▁ac	-9.06566
▁russian	-9.06673
▁italian	-9.0686
▁novel	-9.06865
▁technology	-9.07166
▁uses	-9.0722
▁forms	-9.0733
▁despite	-9.07339
▁iii	-9.07347
ewish	-9.07375
▁particularly	-9.07398
▁peter	-9.0745
▁close	-9.07473
▁started	-9.07616
▁strong	-9.07802
▁sun	-9.07811
▁described	-9.07896
▁schools	-9.07932
▁names	-9.07961
▁function	-9.08006
▁election	-9.08032
▁ireland	-9.08426
▁mass	-9.08496
▁cross	-9.08561
b	-9.08582
▁club	-9.08961
▁players	-9.09016
▁front	-9.09041
ley	-9.09166
▁true	-9.09243
▁award	-9.09491
▁food	-9.0969
▁able	-9.09745
▁islands	-9.09806
ack	-9.09883
ues	-9.09975
▁commonly	-9.10044
▁bay	-9.10095
▁wikipedia	-9.10123
▁services	-9.10146
▁elected	-9.10241
▁killed	-9.10347
▁borough	-9.10406
▁themselves	-9.10518
▁designated	-9.10553
▁catholic	-9.11294
▁latin	-9.1152
▁material	-9.11586
▁actually	-9.11794
▁includes	-9.12115
▁appeared	-9.1221
▁link	-9.12213
▁outside	-9.12226
▁rule	-9.12339
▁museum	-9.12601
▁complete	-9.12685
▁help	-9.12782
▁minnesota	-9.12802
▁speed	-9.12829
▁sir	-9.12938
▁miles	-9.13091
▁find	-9.13121
▁grand	-9.13137
el	-9.13146
▁paris	-9.13155
▁referred	-9.1319
▁currently	-9.13194
▁followed	-9.13228
▁division	-9.13488
▁association	-9.13565
▁am	-9.13592
▁louis	-9.13674
▁ship	-9.13706
▁el	-9.13761
▁chief	-9.13787
▁musical	-9.13962
▁value	-9.14378
▁across	-9.14768
▁usa	-9.14792
▁working	-9.14826
ity	-9.14852
▁mid	-9.14877
▁higher	-9.14916
▁indian	-9.1495
▁coast	-9.15029
▁beginning	-9.15033
▁gold	-9.15041
am	-9.15317
▁industry	-9.15328
▁province	-9.15434
▁hill	-9.15436
▁talk	-9.15533
▁ten	-9.15571
▁irish	-9.15677
▁writer	-9.15751
▁success	-9.15766
▁features	-9.1647
ne	-9.16795
▁seat	-9.168
ac	-9.16846
▁returned	-9.17011
▁cases	-9.17088
▁influence	-9.17603
▁individual	-9.17674
▁legal	-9.18038
▁introduced	-9.18076
▁super	-9.18097
▁africa	-9.1837
▁media	-9.18431
▁key	-9.1846
ling	-9.18546
▁therefore	-9.18569
▁board	-9.18589
▁personal	-9.18937
▁brought	-9.19056
▁significant	-9.19152
▁web	-9.19189
▁valley	-9.19232
as	-9.19563
▁designed	-9.19648
▁van	-9.19778
re	-9.19822
▁governor	-9.19883
▁leading	-9.19943
▁cause	-9.19952
▁interest	-9.20036
▁ira	-9.20053
▁structure	-9.20328
g	-9.20659
▁whether	-9.2068
▁practice	-9.20896
▁private	-9.20937
▁episode	-9.21091
▁problem	-9.21117
▁past	-9.21193
▁ground	-9.21445
▁li	-9.2145
▁britain	-9.21488
▁better	-9.21562
▁rate	-9.21603
▁bill	-9.21669
▁fiction	-9.21691
▁parliament	-9.21825
ean	-9.21826
▁typically	-9.21885
▁bridge	-9.22179
▁singer	-9.22237
▁daughter	-9.22325
▁associated	-9.2238
▁date	-9.22406
▁virginia	-9.22544
▁mark	-9.22586
▁gave	-9.22763
▁problems	-9.22779
▁money	-9.22836
men	-9.22898
▁brother	-9.23061
▁michigan	-9.23063
▁port	-9.23106
ine	-9.23506
▁techni	-9.23584
▁child	-9.23673
▁saw	-9.23689
▁centre	-9.23863
un	-9.23948
uare	-9.2396
▁department	-9.2398
▁need	-9.24012
te	-9.2404
▁points	-9.24056
▁yet	-9.24073
▁peace	-9.24388
▁policy	-9.24557
▁nations	-9.24579
▁sent	-9.2458
▁police	-9.24587
▁hit	-9.24663
▁successful	-9.24666
▁section	-9.24802
▁counties	-9.24859
▁writing	-9.24915
▁commercial	-9.24976
▁songs	-9.25003
▁literature	-9.25067
son	-9.25196
▁give	-9.25351
▁call	-9.25359
▁smith	-9.25509
▁construction	-9.25684
▁summer	-9.25705
▁performance	-9.25708
▁blood	-9.25936
▁brown	-9.26234
▁director	-9.26357
▁move	-9.26408
▁wide	-9.26452
▁say	-9.26495
▁remained	-9.26525
▁navy	-9.26651
▁simply	-9.267
▁duke	-9.26741
▁health	-9.26748
▁actress	-9.26778
▁australian	-9.26973
▁turn	-9.27046
▁reference	-9.27087
▁rest	-9.27152
▁probably	-9.27511
▁larger	-9.27605
to	-9.27628
▁italy	-9.27695
▁shows	-9.27704
▁months	-9.27765
▁mary	-9.27774
ation	-9.27809
▁widely	-9.27818
▁ohio	-9.27827
▁library	-9.27955
▁evidence	-9.28132
▁organization	-9.28191
▁male	-9.28307
▁method	-9.28348
▁refer	-9.28396
▁earlier	-9.28435
▁provide	-9.2893
▁types	-9.29159
▁subse	-9.29276
▁ch	-9.29322
▁complex	-9.29334
▁elements	-9.29583
▁limited	-9.29618
▁ca	-9.29682
▁allowed	-9.29688
▁stage	-9.30026
ma	-9.30083
▁playing	-9.30146
▁security	-9.30208
co	-9.30261
▁physical	-9.30267
▁lines	-9.30344
▁notable	-9.30369
ority	-9.30504
▁surface	-9.30526
▁test	-9.30538
▁economy	-9.30612
▁wisconsin	-9.30701
▁spain	-9.30893
▁remains	-9.31085
▁finally	-9.31221
▁course	-9.31335
ry	-9.31354
▁longer	-9.31398
▁fall	-9.31472
uality	-9.31497
▁domain	-9.31588
▁woman	-9.3171
▁dead	-9.31749
▁whom	-9.31766
▁specific	-9.3183
▁changes	-9.31918
▁internet	-9.31923
▁done	-9.31971
▁win	-9.3204
▁already	-9.32289
▁greater	-9.32407
ersey	-9.32462
▁enough	-9.32497
▁mostly	-9.32545
▁hard	-9.32604
▁nation	-9.32824
▁martin	-9.3287
▁edward	-9.32931
▁recorded	-9.32994
▁companies	-9.33164
▁operation	-9.33192
▁studies	-9.33215
▁cover	-9.33216
▁dutch	-9.33355
▁believed	-9.33386
▁bank	-9.33392
▁length	-9.33434
▁flag	-9.3358
▁sense	-9.33631
▁whole	-9.33647
ion	-9.33764
▁magazine	-9.33914
▁basic	-9.3403
▁oil	-9.34055
▁deleted	-9.34134
st	-9.34247
▁primary	-9.34289
▁caused	-9.34319
▁idea	-9.34363
▁edition	-9.34374
▁changed	-9.34556
▁contains	-9.34653
ual	-9.34895
▁russia	-9.34943
ah	-9.34969
▁things	-9.35035
▁replaced	-9.35076
▁etc	-9.35147
▁territory	-9.35383
▁bar	-9.35392
▁makes	-9.35621
▁di	-9.35763
▁added	-9.35883
▁involved	-9.35976
▁sex	-9.36049
▁sold	-9.36385
▁direct	-9.36486
▁mountain	-9.36497
▁heart	-9.36563
▁pop	-9.36595
▁perhaps	-9.36842
▁separate	-9.36911
▁examples	-9.37033
oined	-9.37048
▁constitution	-9.37152
▁carolina	-9.37153
oseph	-9.37204
▁attempt	-9.37465
uent	-9.37589
▁gas	-9.3774
▁round	-9.37746
▁era	-9.37871
ra	-9.38099
▁color	-9.38193
▁unit	-9.3824
▁appears	-9.38266
▁philosophy	-9.3827
▁machine	-9.38289
▁entire	-9.38375
▁pope	-9.38619
▁met	-9.38657
▁cannot	-9.38851
▁online	-9.3899
▁sports	-9.38992
▁revolution	-9.39199
▁issue	-9.39309
▁route	-9.39502
▁provided	-9.39524
▁metal	-9.3955
▁israel	-9.39556
▁medical	-9.3969
▁command	-9.39751
▁simple	-9.39964
▁na	-9.40009
▁congress	-9.40116
▁campaign	-9.40136
▁castle	-9.40211
▁engine	-9.40244
▁stories	-9.40703
▁independence	-9.40715
▁collection	-9.40732
▁politics	-9.40738
▁towards	-9.40987
▁event	-9.41101
▁behind	-9.41136
▁dark	-9.41224
▁know	-9.41259
▁lived	-9.41431
▁florida	-9.41442
▁recently	-9.41448
▁management	-9.41487
▁uni	-9.41547
▁prize	-9.41564
▁believe	-9.41655
▁effects	-9.417
▁concept	-9.41781
▁classical	-9.42064
▁sources	-9.4216
▁nuclear	-9.42191
▁mac	-9.42353
▁access	-9.42427
▁academy	-9.42663
▁largely	-9.42671
▁degree	-9.42868
▁running	-9.4287
▁rome	-9.42871
▁religion	-9.42938
▁authority	-9.4299
▁te	-9.43278
▁smaller	-9.43383
▁mexico	-9.43432
▁taking	-9.43462
ob	-9.43546
▁du	-9.43612
▁democratic	-9.43721
▁growth	-9.43805
▁becomes	-9.43817
ur	-9.43895
▁los	-9.43984
la	-9.44026
▁highly	-9.4405
▁institute	-9.44137
▁rules	-9.44173
▁ball	-9.44195
▁status	-9.44274
▁bit	-9.4429
▁nd	-9.4439
▁troops	-9.44434
▁border	-9.44582
▁likely	-9.44596
▁laws	-9.44756
▁arts	-9.44767
▁produce	-9.44818
▁letter	-9.44965
▁claim	-9.45043
▁cultural	-9.45083
▁amount	-9.45226
▁appear	-9.45389
▁start	-9.45578
▁illinois	-9.45584
▁via	-9.4565
▁issues	-9.45656
▁directly	-9.45917
▁defined	-9.45964
▁clear	-9.45974
▁create	-9.46171
▁channel	-9.46203
▁et	-9.46274
it	-9.46301
▁minor	-9.46415
▁nearly	-9.46416
da	-9.46418
▁performed	-9.46428
▁allow	-9.46555
▁track	-9.46713
▁takes	-9.46848
▁numerous	-9.47049
▁mind	-9.47075
▁professional	-9.47092
▁product	-9.47226
▁scientific	-9.47395
▁plan	-9.47544
▁articles	-9.47589
▁regular	-9.47598
▁pressure	-9.47685
▁reason	-9.4769
▁active	-9.47736
▁property	-9.4774
▁stars	-9.47752
▁worked	-9.47759
▁railway	-9.48088
▁latter	-9.48114
▁claimed	-9.48132
▁moon	-9.482
▁knowledge	-9.48217
▁cost	-9.4826
▁operations	-9.48343
ca	-9.48353
▁training	-9.48358
▁parties	-9.48415
▁ben	-9.48456
ies	-9.4847
▁forced	-9.48501
▁chicago	-9.48874
▁paper	-9.48916
▁results	-9.49101
uest	-9.49134
▁previous	-9.49256
▁appointed	-9.49369
th	-9.49446
▁von	-9.49463
▁boy	-9.49545
uite	-9.4959
▁upper	-9.49751
▁something	-9.49777
▁opened	-9.49811
▁variety	-9.49867
▁master	-9.49962
▁flight	-9.49983
▁tour	-9.50077
▁normal	-9.50106
▁highest	-9.50233
▁heavy	-9.50289
▁lee	-9.50466
▁cut	-9.50471
▁difficult	-9.50471
▁wood	-9.50499
▁featured	-9.50544
▁poet	-9.50577
▁stone	-9.507
▁treaty	-9.5071
▁products	-9.50736
de	-9.51169
▁placed	-9.51205
▁face	-9.51242
▁iv	-9.51472
pg	-9.51607
▁wars	-9.51717
▁est	-9.52082
▁mm	-9.52084
less	-9.52199
▁divided	-9.52219
▁scotland	-9.52306
at	-9.52323
▁except	-9.52456
ni	-9.52465
▁origin	-9.52641
▁approximately	-9.52829
▁double	-9.52891
▁administration	-9.53051
ones	-9.53058
▁cup	-9.53067
▁read	-9.53313
▁decided	-9.53359
▁vi	-9.5336
▁ra	-9.53411
▁birth	-9.53671
▁zealand	-9.5368
▁marriage	-9.53879
▁increased	-9.5395
▁ships	-9.53975
uickly	-9.54066
▁shown	-9.54098
ized	-9.54142
▁student	-9.54229
▁passed	-9.54277
ka	-9.543
▁ring	-9.54312
▁plant	-9.54449
▁holy	-9.54497
▁report	-9.54503
▁feature	-9.54563
ius	-9.5471
ter	-9.54753
ous	-9.54827
▁communities	-9.54856
▁sweden	-9.55163
▁relationship	-9.55187
ews	-9.55269
▁secretary	-9.55386
▁regional	-9.555
▁wing	-9.55502
▁industrial	-9.55555
▁programs	-9.55574
▁digital	-9.55611
▁memory	-9.55675
▁voice	-9.5571
▁bbc	-9.56025
▁defense	-9.56043
▁die	-9.56061
ment	-9.56138
▁albums	-9.5616
uence	-9.56296
▁matter	-9.56365
▁exist	-9.56429
rs	-9.56463
▁composer	-9.56479
▁arms	-9.56545
▁kind	-9.56558
▁mission	-9.57052
▁analysis	-9.57061
▁scale	-9.5716
▁picture	-9.57283
▁prior	-9.57587
▁representative	-9.57589
▁universe	-9.57631
▁claims	-9.57787
▁winter	-9.5779
▁directed	-9.57803
▁cast	-9.57858
▁committee	-9.57873
▁fort	-9.57882
ustice	-9.57888
▁asia	-9.58018
▁mainly	-9.5803
▁gun	-9.58036
▁content	-9.58137
▁ed	-9.58186
▁ex	-9.5836
▁images	-9.58539
▁basis	-9.58558
▁iron	-9.58618
▁card	-9.58638
no	-9.58648
▁feet	-9.58697
▁refers	-9.58839
▁tree	-9.5885
▁hold	-9.58858
oe	-9.58887
▁going	-9.58916
▁secret	-9.59026
▁discovered	-9.59036
den	-9.59053
▁des	-9.5909
ri	-9.5915
▁turned	-9.59171
▁increase	-9.59217
▁del	-9.59384
▁mean	-9.59409
▁additional	-9.59469
▁guitar	-9.59501
ane	-9.5974
▁decision	-9.59791
azz	-9.59811
wood	-9.59872
▁creation	-9.59916
▁conditions	-9.5992
▁oxford	-9.59932
▁engineering	-9.59967
▁highway	-9.60097
▁baseball	-9.60098
▁volume	-9.60117
▁account	-9.60255
▁municipality	-9.60317
▁fourth	-9.60332
▁letters	-9.60391
▁powers	-9.60416
▁ice	-9.60422
▁liberal	-9.60491
▁comes	-9.60498
▁tradition	-9.60519
id	-9.60585
▁pass	-9.60662
▁ne	-9.60676
▁buildings	-9.60681
ro	-9.60812
▁programming	-9.61016
▁net	-9.61119
▁tom	-9.61197
▁disease	-9.61236
▁alexander	-9.61273
▁scene	-9.61274
▁georgia	-9.61301
▁frac	-9.61314
▁branch	-9.61332
▁hot	-9.61407
▁relatively	-9.61483
uestion	-9.61554
ally	-9.61554
▁friends	-9.61577
▁artists	-9.61667
▁actors	-9.617
▁ocean	-9.61808
▁wales	-9.61822
▁let	-9.61904
lin	-9.61931
▁wall	-9.61959
▁experience	-9.6209
▁urban	-9.621
▁nor	-9.62159
▁reached	-9.62262
▁org	-9.62267
ite	-9.62306
▁deep	-9.62411
▁primarily	-9.62411
▁beach	-9.62621
▁pan	-9.62748
▁ability	-9.62767
▁keep	-9.62803
▁notes	-9.62835
▁appearance	-9.6296
▁mr	-9.62961
▁ko	-9.63046
▁awards	-9.6311
se	-9.63259
▁rd	-9.63308
▁noted	-9.6331
▁weapons	-9.63473
▁bass	-9.63489
▁intended	-9.63587
▁bad	-9.63595
▁fair	-9.63669
▁purpose	-9.63701
▁friend	-9.63987
▁captain	-9.64032
▁spring	-9.6405
▁vol	-9.64108
▁rise	-9.64156
▁multiple	-9.64269
▁camp	-9.64334
▁sexual	-9.64423
▁freedom	-9.64505
▁relations	-9.64566
▁cell	-9.64612
▁operating	-9.64658
▁got	-9.64679
▁applied	-9.64735
▁adopted	-9.65269
w	-9.65334
▁mu	-9.65426
▁artist	-9.65439
▁electric	-9.65461
▁da	-9.65492
▁writers	-9.65533
▁distance	-9.65627
▁inside	-9.65737
▁polish	-9.65774
▁transport	-9.65834
▁powerful	-9.6585
▁missouri	-9.65956
▁fictional	-9.65978
▁earl	-9.65986
field	-9.66046
▁rose	-9.66186
ina	-9.66388
▁modified	-9.66452
▁versions	-9.66525
▁fans	-9.66543
▁sa	-9.66572
ol	-9.66761
▁republican	-9.66783
▁cold	-9.668
▁fleet	-9.66804
▁reading	-9.66814
▁golden	-9.66827
▁fight	-9.66838
▁previously	-9.66876
▁figure	-9.66948
▁functions	-9.66988
▁animals	-9.67003
▁guide	-9.67035
ler	-9.67055
ish	-9.67103
▁becoming	-9.67229
▁vote	-9.67245
▁loss	-9.67422
▁ended	-9.6744
▁hours	-9.67516
▁response	-9.67579
▁shot	-9.67583
▁alternative	-9.67629
▁lack	-9.67727
esus	-9.67729
▁frank	-9.67781
▁christ	-9.67783
▁bush	-9.67787
io	-9.67855
▁windows	-9.67928
▁airlines	-9.68045
▁methods	-9.6826
▁consists	-9.68411
▁poor	-9.68446
▁scottish	-9.68536
▁table	-9.68643
ay	-9.68699
▁stop	-9.68731
▁treatment	-9.68742
▁dance	-9.68823
▁leaders	-9.68847
▁derived	-9.68954
▁foundation	-9.68956
▁look	-9.69014
▁photo	-9.69077
▁assembly	-9.69217
▁dynasty	-9.69265
▁levels	-9.69265
▁signed	-9.69331
▁ha	-9.69415
▁speech	-9.69514
▁greatest	-9.69557
▁completed	-9.69592
▁signal	-9.69592
▁mountains	-9.69626
▁why	-9.69629
▁definition	-9.69634
▁announced	-9.69662
▁fish	-9.69728
▁supported	-9.6989
▁comic	-9.69995
▁temple	-9.70043
▁completely	-9.70054
▁ran	-9.70056
▁failed	-9.70068
▁chemical	-9.70069
▁swedish	-9.70124
▁mount	-9.70153
ey	-9.70157
▁accepted	-9.70325
▁kong	-9.70382
▁elections	-9.70497
▁silver	-9.70503
▁rich	-9.70847
▁critical	-9.7089
em	-9.70903
▁fan	-9.71065
▁angeles	-9.71089
▁png	-9.71153
▁financial	-9.71154
ge	-9.71292
▁professor	-9.71526
▁file	-9.71576
▁biography	-9.71588
▁netherlands	-9.7164
▁price	-9.71718
▁bob	-9.71776
▁sign	-9.71797
▁supreme	-9.72048
▁motion	-9.72137
ard	-9.72186
▁reported	-9.72265
ner	-9.72343
▁columbia	-9.72347
ce	-9.72431
ohnson	-9.72566
▁stock	-9.72653
▁proposed	-9.72655
▁tax	-9.72703
▁der	-9.72721
▁direction	-9.72796
▁exchange	-9.72878
ak	-9.72932
▁actual	-9.72993
mer	-9.73003
uire	-9.73053
ya	-9.73112
ham	-9.73122
ad	-9.73247
▁kansas	-9.73266
▁inter	-9.73293
▁conservative	-9.73299
oy	-9.73308
▁communist	-9.73449
▁necessary	-9.73489
▁deal	-9.73493
▁remain	-9.73706
me	-9.73859
▁villages	-9.73885
▁lives	-9.73958
v	-9.73989
▁stations	-9.74005
▁cat	-9.74093
▁critics	-9.74136
▁existence	-9.74163
▁carried	-9.74166
▁centuries	-9.74211
▁initial	-9.74218
▁gives	-9.74276
▁room	-9.74433
▁provides	-9.7444
▁commission	-9.74463
ul	-9.74502
▁imperial	-9.74519
▁needed	-9.74545
▁immediately	-9.74583
ists	-9.74664
▁introduction	-9.74674
▁conflict	-9.74811
▁environment	-9.74909
▁eye	-9.74912
▁opposition	-9.74925
▁crown	-9.74931
▁destroyed	-9.74968
▁drive	-9.75012
▁resources	-9.75029
▁starting	-9.75041
▁generation	-9.75058
sa	-9.75203
▁ka	-9.75249
ected	-9.7535
▁plays	-9.75379
▁beyond	-9.75442
▁temperature	-9.75504
▁travel	-9.7552
▁regions	-9.75564
▁forest	-9.75686
ty	-9.75705
▁conse	-9.75717
ackson	-9.7576
▁opening	-9.76092
▁activities	-9.76101
▁seems	-9.76134
▁search	-9.76134
▁regarded	-9.76138
▁labour	-9.76166
▁potential	-9.76417
▁wind	-9.76456
▁instance	-9.76597
▁unknown	-9.76599
▁egypt	-9.76618
▁attacks	-9.76645
▁mayor	-9.76646
▁distribution	-9.76653
▁pay	-9.76667
▁acts	-9.76711
▁massachusetts	-9.77266
▁tower	-9.77273
▁sister	-9.77311
▁review	-9.77339
▁care	-9.77412
▁festival	-9.77476
▁arthur	-9.77512
ford	-9.77575
▁ways	-9.77593
▁extremely	-9.77757
▁ontario	-9.77783
▁owned	-9.77789
▁conference	-9.77807
▁naval	-9.77826
▁victory	-9.7786
▁soldiers	-9.77914
▁staff	-9.7798
ga	-9.77986
▁weight	-9.78041
▁animal	-9.7805
▁mythology	-9.78108
▁ray	-9.78123
▁growing	-9.78225
▁executive	-9.78239
▁responsible	-9.78289
▁harry	-9.78444
▁horse	-9.7847
▁producer	-9.78496
au	-9.78511
▁bishop	-9.78618
▁heat	-9.78739
▁daily	-9.78863
▁continue	-9.78871
▁bell	-9.789
▁somewhat	-9.78915
est	-9.7901
▁classic	-9.79011
▁ideas	-9.79072
▁approach	-9.79074
▁teams	-9.79177
il	-9.79188
▁hands	-9.79189
▁medicine	-9.79195
▁format	-9.79248
▁multi	-9.7926
▁politician	-9.7934
▁fame	-9.79382
▁winning	-9.79439
▁consider	-9.79448
▁hong	-9.79494
▁officer	-9.79584
▁nothing	-9.79635
▁element	-9.79636
▁translation	-9.79687
▁giving	-9.79757
▁lady	-9.7976
▁internal	-9.79782
▁recording	-9.798
ium	-9.79826
▁senate	-9.79828
▁initially	-9.79867
ten	-9.79922
▁unlike	-9.79956
▁symbol	-9.79983
▁bus	-9.80017
▁protection	-9.80217
▁os	-9.80256
ization	-9.80292
▁mentioned	-9.80338
▁historic	-9.80365
▁fast	-9.80432
▁sam	-9.8045
by	-9.80563
ant	-9.80597
ate	-9.80622
ts	-9.80626
▁architecture	-9.80649
▁stated	-9.8066
▁pa	-9.80663
▁closed	-9.8067
▁count	-9.80673
▁activity	-9.807
uipment	-9.80765
▁ba	-9.80857
▁opera	-9.80936
▁vice	-9.8095
▁entered	-9.80993
be	-9.81052
line	-9.81068
▁planet	-9.81089
ava	-9.81159
▁follow	-9.81265
der	-9.81274
▁theatre	-9.81342
▁models	-9.81343
▁piece	-9.81362
▁charge	-9.8142
▁situation	-9.81432
▁kings	-9.81459
▁break	-9.81472
ba	-9.81474
▁officially	-9.81553
▁reform	-9.81596
▁convention	-9.81633
▁iowa	-9.81688
▁allows	-9.81735
▁commander	-9.81762
ti	-9.81828
▁brain	-9.81833
▁prominent	-9.8193
▁notably	-9.81931
▁opposed	-9.8194
▁corporation	-9.81989
▁brothers	-9.82069
▁physics	-9.82107
▁defeated	-9.82177
▁incorporated	-9.82253
▁formerly	-9.82259
▁poland	-9.82267
▁fell	-9.82419
▁intelligence	-9.82459
▁remaining	-9.82605
▁apple	-9.82691
▁spent	-9.82748
▁host	-9.82765
▁cambridge	-9.82798
▁foot	-9.82809
▁il	-9.82813
▁invasion	-9.82842
▁francisco	-9.82846
▁leaving	-9.82853
▁attention	-9.8288
age	-9.82966
▁runs	-9.83059
▁contemporary	-9.83112
▁faith	-9.83136
▁newspaper	-9.83149
▁speaking	-9.83204
▁electronic	-9.83446
▁moving	-9.8351
▁launched	-9.83534
▁possibly	-9.83564
▁serve	-9.83634
▁wild	-9.83686
▁occur	-9.83701
▁cells	-9.83768
▁leave	-9.83831
ournal	-9.83875
▁week	-9.83916
▁dog	-9.84001
▁atlantic	-9.84004
▁match	-9.84018
ung	-9.84019
▁easily	-9.84127
▁advanced	-9.84223
▁residents	-9.84252
▁scott	-9.84286
▁fields	-9.84355
▁fa	-9.84405
▁mathematics	-9.84417
▁fighting	-9.84506
▁write	-9.84555
▁constant	-9.84814
▁workers	-9.84883
▁box	-9.85025
ua	-9.85068
▁stand	-9.85153
▁sites	-9.85217
▁declared	-9.85306
▁elizabeth	-9.85325
▁boston	-9.85383
▁removed	-9.85425
ke	-9.8544
▁northwest	-9.85467
▁girl	-9.85557
▁formal	-9.85643
▁agreement	-9.85778
▁campus	-9.85794
▁williams	-9.85937
▁combined	-9.86021
▁train	-9.86082
▁presidential	-9.86096
▁rail	-9.86102
▁championship	-9.86187
▁month	-9.86349
uan	-9.86389
▁nearby	-9.86424
▁yellow	-9.86548
▁sky	-9.86558
▁santa	-9.86676
▁comedy	-9.86705
ns	-9.86725
▁drug	-9.86728
▁norway	-9.86745
▁universal	-9.86814
▁resulting	-9.86841
▁nobel	-9.86961
▁ta	-9.86963
▁prevent	-9.86979
▁extended	-9.86989
▁offered	-9.87027
▁begins	-9.87034
▁berlin	-9.87035
▁applications	-9.87088
▁traffic	-9.87377
▁utc	-9.87383
▁pages	-9.87415
▁helped	-9.87571
▁reasons	-9.87655
▁maps	-9.87662
▁technical	-9.87785
▁houses	-9.87943
▁lists	-9.88049
▁studio	-9.88316
▁labor	-9.8832
▁crew	-9.88366
▁ban	-9.88418
▁wave	-9.88466
▁americans	-9.88476
▁values	-9.88515
▁gained	-9.8852
▁audio	-9.88559
▁rare	-9.88621
▁global	-9.88626
▁arab	-9.88662
▁plants	-9.88673
▁organizations	-9.88673
▁bible	-9.88697
▁ethnic	-9.88737
▁annual	-9.88784
▁entry	-9.88792
▁share	-9.88848
▁honor	-9.88851
▁minutes	-9.88867
▁founder	-9.88956
▁mc	-9.89075
▁spirit	-9.8909
▁defeat	-9.89102
▁affairs	-9.8916
▁avoid	-9.89269
▁murder	-9.89519
▁step	-9.89591
▁damage	-9.89604
ting	-9.89615
▁expected	-9.89654
▁composed	-9.89721
▁kept	-9.89774
▁attempts	-9.89856
▁humans	-9.89912
▁kill	-9.90019
uivalent	-9.90024
▁bo	-9.90034
ki	-9.90055
▁cd	-9.90246
▁fuel	-9.9032
▁typical	-9.90391
▁settlement	-9.9042
▁background	-9.90444
▁figures	-9.90479
▁think	-9.90515
▁grew	-9.90555
▁austria	-9.90562
▁efforts	-9.90591
▁users	-9.90611
ier	-9.90672
do	-9.9069
▁enemy	-9.90696
▁meeting	-9.90764
▁literary	-9.90829
li	-9.90855
▁reign	-9.90879
▁serious	-9.90892
▁says	-9.91068
▁semi	-9.9111
▁materials	-9.91172
▁dis	-9.91175
▁follows	-9.91234
▁causes	-9.9126
▁novels	-9.91262
▁connected	-9.91276
▁device	-9.91325
▁application	-9.91353
uency	-9.91512
▁risk	-9.91617
▁ft	-9.91652
▁choice	-9.91653
▁presence	-9.91673
ov	-9.91706
▁entirely	-9.91841
▁stephen	-9.91873
▁ve	-9.91875
▁goes	-9.91918
▁doctor	-9.91925
▁connection	-9.91988
▁twenty	-9.9203
ko	-9.92035
▁want	-9.92109
▁princess	-9.9211
oin	-9.92375
▁gay	-9.9242
▁raised	-9.92456
ha	-9.92484
▁split	-9.92499
▁tried	-9.9258
▁bi	-9.92587
▁legend	-9.92632
▁contact	-9.92638
▁asked	-9.92678
▁acid	-9.92871
sh	-9.93012
▁string	-9.93063
▁standards	-9.9312
▁influenced	-9.93367
▁effective	-9.93417
▁hour	-9.93435
▁copyright	-9.93521
▁grant	-9.93546
▁orange	-9.93559
▁fox	-9.93654
▁orthodox	-9.93655
▁trial	-9.93708
▁told	-9.93713
▁crime	-9.93721
▁compared	-9.93772
ir	-9.93813
▁represented	-9.94062
▁citizens	-9.94077
▁extensive	-9.94117
pa	-9.94143
▁sum	-9.9435
▁path	-9.94401
▁describe	-9.94418
▁properties	-9.94479
▁fu	-9.94494
ui	-9.94505
▁wanted	-9.94525
▁parents	-9.94564
▁combat	-9.94579
▁core	-9.94614
▁ge	-9.9463
▁operated	-9.94662
▁indeed	-9.9471
▁edge	-9.94725
▁aid	-9.94736
▁forward	-9.94737
▁movies	-9.94743
▁begin	-9.94765
▁broadcast	-9.94775
▁controversy	-9.94861
▁mo	-9.94977
▁shortly	-9.95004
▁usage	-9.95038
▁contain	-9.9511
town	-9.95176
▁indiana	-9.95377
▁cards	-9.95481
▁musician	-9.95669
ut	-9.95725
▁falls	-9.95768
▁reach	-9.95862
▁controlled	-9.95883
▁plot	-9.95972
▁mon	-9.95975
▁creek	-9.9605
▁belief	-9.96052
▁sets	-9.9606
▁build	-9.9607
▁korea	-9.96185
▁albert	-9.96279
▁fully	-9.96342
▁reduced	-9.9643
▁plane	-9.96491
▁ordered	-9.96539
mi	-9.96597
▁increasing	-9.96602
▁settled	-9.96646
ek	-9.96646
▁interview	-9.96722
▁plans	-9.9678
▁surrounding	-9.96827
oint	-9.9686
▁views	-9.97005
▁proved	-9.97033
▁difference	-9.9706
▁coming	-9.97075
▁identity	-9.97128
▁flat	-9.97136
▁zone	-9.97181
▁useful	-9.97318
go	-9.97322
ana	-9.97326
▁context	-9.97367
▁otherwise	-9.97388
▁philip	-9.97392
▁districts	-9.97396
▁suggested	-9.97404
▁folk	-9.97477
▁label	-9.97611
▁captured	-9.97617
▁musicians	-9.97731
▁universities	-9.97902
▁refused	-9.97994
▁supply	-9.98021
▁phase	-9.98061
▁expansion	-9.98074
don	-9.98297
▁screen	-9.9835
▁existing	-9.98353
▁attempted	-9.98488
ive	-9.98526
▁palace	-9.98618
▁inspired	-9.98637
▁pictures	-9.98669
▁recognized	-9.98688
▁leadership	-9.98766
▁popularity	-9.98788
ective	-9.98822
▁champion	-9.98841
▁thing	-9.98917
lo	-9.98967
▁negative	-9.98976
▁inhabitants	-9.99036
▁strength	-9.99102
▁description	-9.99128
▁episodes	-9.99141
op	-9.99143
▁ni	-9.99174
▁bands	-9.99231
ps	-9.99237
▁impact	-9.99253
▁titles	-9.99257
▁armed	-9.99375
▁evil	-9.99403
▁controversial	-9.99456
▁competition	-9.99465
▁selected	-9.99511
▁address	-9.99627
▁greece	-9.99672
▁details	-9.99693
▁transportation	-9.99734
▁lewis	-9.99741
▁fifth	-9.99753
▁chi	-9.9982
led	-9.99824
▁condition	-9.99848
▁dakota	-9.99898
▁allowing	-9.99927
▁memorial	-9.99948
▁effort	-9.99965
▁bring	-10.0002
▁dan	-10.0003
▁studied	-10.0006
▁succeeded	-10.001
▁tend	-10.0011
▁counter	-10.0027
▁chain	-10.0029
tic	-10.004
▁brief	-10.0041
ised	-10.0042
▁steel	-10.0045
▁trans	-10.0047
▁occurred	-10.0052
▁solo	-10.0055
▁salt	-10.0056
▁victoria	-10.0059
▁arrived	-10.0065
mo	-10.0068
udge	-10.0068
▁weeks	-10.0077
▁containing	-10.0077
uarters	-10.0081
ola	-10.0088
▁churches	-10.0088
▁slightly	-10.0089
▁flow	-10.0095
▁tri	-10.0099
▁pieces	-10.0101
▁townships	-10.0102
▁store	-10.0104
▁resistance	-10.0107
▁municipalities	-10.0112
▁railroad	-10.0112
▁meet	-10.0114
▁shape	-10.0117
ou	-10.0126
▁principle	-10.0128
▁focus	-10.013
▁criticism	-10.0136
ary	-10.0138
▁positive	-10.0142
za	-10.0143
▁cm	-10.0146
▁hospital	-10.0151
ong	-10.0151
ury	-10.0167
▁awarded	-10.0185
▁lies	-10.0186
▁alliance	-10.0187
▁piano	-10.0187
▁han	-10.0187
▁hundred	-10.0189
▁daniel	-10.0189
▁garden	-10.0201
▁fine	-10.0205
▁factor	-10.0209
▁soul	-10.0209
mar	-10.0213
▁block	-10.0218
▁oklahoma	-10.0223
▁failure	-10.0226
▁poetry	-10.0235
▁arm	-10.024
▁goal	-10.0241
▁encyclopedia	-10.0242
▁editor	-10.0248
▁presented	-10.0264
ura	-10.0272
▁marked	-10.0274
▁mississippi	-10.0286
▁oldest	-10.029
▁sides	-10.0293
▁rivers	-10.0296
▁ll	-10.0298
up	-10.0311
▁portion	-10.0313
▁vietnam	-10.0316
ig	-10.0317
▁actions	-10.0336
▁decades	-10.0341
▁douglas	-10.0348
▁throne	-10.0363
▁carry	-10.0364
wa	-10.0372
▁hebrew	-10.0378
▁organized	-10.0378
▁les	-10.0382
▁cars	-10.0391
▁creating	-10.0397
▁contract	-10.0403
▁officers	-10.0404
▁canal	-10.0414
▁extra	-10.042
▁theories	-10.0423
▁climate	-10.0425
▁senator	-10.0428
▁comics	-10.0429
▁guard	-10.0432
▁specifically	-10.0432
▁youth	-10.0436
uires	-10.0441
▁ver	-10.0452
▁carbon	-10.0453
▁hair	-10.0459
▁license	-10.046
ot	-10.046
▁provinces	-10.0479
▁distinct	-10.0483
▁meant	-10.0493
▁heavily	-10.0498
▁discussion	-10.0502
▁add	-10.0503
▁occurs	-10.0507
▁sh	-10.051
▁communications	-10.0513
uebec	-10.0517
▁southeast	-10.0518
▁agreed	-10.0521
▁dry	-10.0527
▁reality	-10.0541
▁rank	-10.0543
▁magic	-10.0544
▁toward	-10.0546
▁ke	-10.0548
▁proper	-10.0548
▁cathedral	-10.0551
▁truth	-10.0552
ated	-10.0552
▁mail	-10.0558
▁arkansas	-10.0561
▁solar	-10.0567
▁israeli	-10.0569
▁prison	-10.057
▁granted	-10.0578
▁continues	-10.0583
▁issued	-10.0585
▁denmark	-10.0587
▁microsoft	-10.059
▁weather	-10.0591
▁tennessee	-10.0594
▁chamber	-10.0599
▁billion	-10.0611
▁contrast	-10.0611
▁express	-10.0613
▁pi	-10.0615
▁younger	-10.0619
▁showing	-10.0619
▁saying	-10.0626
▁develop	-10.063
▁gods	-10.0631
▁cycle	-10.0634
▁theme	-10.0638
▁classes	-10.0645
▁glass	-10.0652
▁importance	-10.0652
▁fixed	-10.0656
▁chosen	-10.0657
▁pp	-10.0668
▁wilson	-10.067
▁skin	-10.067
▁par	-10.0671
▁carl	-10.0673
▁measure	-10.0673
ik	-10.0689
▁principal	-10.0689
▁resulted	-10.0696
▁debate	-10.0697
ara	-10.0705
ab	-10.0707
con	-10.0711
▁bird	-10.0713
▁francis	-10.0717
▁reaction	-10.0722
▁message	-10.0722
▁eyes	-10.0724
ize	-10.0726
▁cape	-10.0726
▁normally	-10.073
▁hi	-10.0731
▁finland	-10.0736
▁genus	-10.0742
▁really	-10.0744
▁category	-10.0744
▁circle	-10.0744
▁easy	-10.0755
▁mathematical	-10.0756
▁suffered	-10.076
▁fought	-10.077
▁felt	-10.0771
▁po	-10.0772
▁medal	-10.0772
▁southwest	-10.0774
▁pattern	-10.0779
▁academic	-10.078
▁structures	-10.0783
▁medieval	-10.0784
▁kentucky	-10.0786
▁broad	-10.0787
▁thousands	-10.0792
ent	-10.0795
▁relative	-10.0797
▁instruments	-10.0805
▁target	-10.0808
▁killing	-10.0815
▁featuring	-10.0821
▁hills	-10.0826
▁manager	-10.0837
▁setting	-10.0838
▁trees	-10.0862
▁ny	-10.0892
▁evolution	-10.0894
▁exists	-10.09
▁supporting	-10.0902
▁visit	-10.0903
▁planned	-10.0906
▁constructed	-10.0912
▁closely	-10.0912
▁colorado	-10.0915
▁respect	-10.0916
▁try	-10.0921
ew	-10.0924
▁logic	-10.0928
▁solution	-10.0936
▁administrative	-10.0938
▁lot	-10.0938
▁revolutionary	-10.0946
▁spoken	-10.0949
▁receive	-10.0951
▁inc	-10.0954
▁bottom	-10.0955
▁hollywood	-10.0957
▁corps	-10.0962
▁dc	-10.097
▁represent	-10.0974
▁looking	-10.0981
▁portuguese	-10.0984
ron	-10.0989
▁statement	-10.0989
▁simon	-10.0991
▁morning	-10.0996
▁hence	-10.0998
bo	-10.0999
uid	-10.1
▁formation	-10.1001
ens	-10.1008
▁learning	-10.1009
di	-10.1014
▁taylor	-10.1028
▁combination	-10.1031
ee	-10.1032
▁cancer	-10.1033
▁ho	-10.1034
▁ruled	-10.1049
▁positions	-10.1053
▁computers	-10.1056
▁listed	-10.1059
▁parallel	-10.106
▁sin	-10.1065
▁islamic	-10.1069
▁depending	-10.1079
▁audience	-10.108
▁sand	-10.1084
▁correct	-10.1087
▁apparently	-10.1092
▁behavior	-10.1092
▁lyrics	-10.11
▁hamlet	-10.1101
net	-10.1103
▁muslim	-10.1111
▁christianity	-10.1113
▁authorities	-10.1114
▁dec	-10.1119
▁fantasy	-10.1124
ci	-10.1125
▁domestic	-10.1127
▁vocals	-10.1132
▁howard	-10.1132
▁brazil	-10.1134
▁austin	-10.1136
▁display	-10.1138
▁offer	-10.1139
▁leaves	-10.1144
▁environmental	-10.1156
▁translated	-10.1158
▁pc	-10.1161
▁lincoln	-10.1165
▁acting	-10.1167
▁earliest	-10.1178
▁calendar	-10.1184
▁cabinet	-10.1185
▁reports	-10.1186
▁marine	-10.1194
▁differences	-10.1197
▁nazi	-10.1204
▁frederick	-10.1208
▁devices	-10.1208
▁flying	-10.1211
▁sport	-10.1211
▁pr	-10.1212
per	-10.1223
▁maximum	-10.1228
▁orders	-10.123
▁safety	-10.1231
sen	-10.1233
▁mill	-10.1235
▁maintain	-10.1241
▁sciences	-10.1245
▁roll	-10.1246
▁argued	-10.126
▁sur	-10.126
▁extreme	-10.1263
ection	-10.1271
the	-10.1274
▁satellite	-10.1278
▁statistics	-10.128
▁ford	-10.1282
▁concert	-10.1283
▁ram	-10.1285
▁mine	-10.1291
▁dedicated	-10.1301
▁traditionally	-10.1304
▁seats	-10.1305
▁alabama	-10.1308
▁steve	-10.1309
▁birds	-10.1314
▁scholars	-10.1314
▁identified	-10.1316
▁boys	-10.1317
▁permanent	-10.1319
▁mixed	-10.1333
▁maryland	-10.1335
▁starring	-10.1335
▁candidate	-10.1341
▁straight	-10.1343
▁secondary	-10.1351
▁html	-10.1352
▁considerable	-10.1353
▁perfect	-10.1353
▁criminal	-10.1356
▁solid	-10.1372
▁fi	-10.1377
▁sales	-10.1385
les	-10.1385
▁increasingly	-10.1387
kin	-10.1395
▁estimated	-10.1398
▁manner	-10.1408
▁serving	-10.1408
▁gain	-10.1415
▁nov	-10.1423
▁ar	-10.1425
▁korean	-10.1425
▁paid	-10.1428
▁metropolitan	-10.1429
▁persons	-10.1432
▁advantage	-10.1433
▁mode	-10.1434
▁doing	-10.1458
▁tracks	-10.1459
▁christmas	-10.1466
berg	-10.1471
▁determined	-10.1472
▁chess	-10.1477
▁slow	-10.1485
▁davis	-10.1487
▁discovery	-10.1487
▁anything	-10.1488
▁principles	-10.1493
▁oscar	-10.1493
▁northeast	-10.15
▁blues	-10.1504
ger	-10.1513
▁occasionally	-10.1513
▁standing	-10.1522
idae	-10.1523
▁agriculture	-10.1524
▁boat	-10.153
▁downtown	-10.1531
▁tar	-10.1532
▁dream	-10.1533
▁perform	-10.1534
▁ph	-10.1536
ted	-10.1542
▁huge	-10.1549
▁eu	-10.1573
▁argument	-10.1579
▁afghanistan	-10.1581
ful	-10.1584
uer	-10.1588
▁walter	-10.159
▁opposite	-10.1592
▁hell	-10.1602
▁formula	-10.1604
house	-10.1605
▁franklin	-10.1607
▁anne	-10.1607
▁crisis	-10.1609
▁engines	-10.1611
▁beat	-10.1614
▁database	-10.1614
▁lu	-10.1616
▁purposes	-10.1619
▁moral	-10.1623
▁contained	-10.1635
▁understanding	-10.1641
▁bomb	-10.1643
▁occupied	-10.1647
▁heritage	-10.1659
▁gulf	-10.166
▁syndrome	-10.1661
▁shall	-10.1661
▁phrase	-10.1669
▁sons	-10.1671
▁adult	-10.1675
▁output	-10.1677
acent	-10.1682
▁topics	-10.1682
▁interstate	-10.1684
▁needs	-10.1691
▁hope	-10.1696
▁managed	-10.1699
ade	-10.1703
▁delta	-10.1703
well	-10.1713
▁holds	-10.1724
▁mexican	-10.1733
▁oregon	-10.1743
▁escape	-10.1746
▁defence	-10.1751
▁spiritual	-10.1753
▁ken	-10.1761
▁entertainment	-10.1762
▁entitled	-10.1768
▁reputation	-10.1776
ure	-10.1779
▁bond	-10.178
▁micro	-10.1789
▁institutions	-10.1793
▁attended	-10.1794
▁weapon	-10.1798
▁index	-10.1801
fa	-10.1802
▁visual	-10.1808
▁orchestra	-10.181
▁twice	-10.1813
▁constitutional	-10.1814
▁andrew	-10.1817
▁islam	-10.1824
▁renamed	-10.183
▁louisiana	-10.1836
▁feel	-10.1842
uk	-10.1844
▁ends	-10.1849
▁score	-10.1849
▁linear	-10.1854
▁limit	-10.1855
▁olympic	-10.1855
▁dvd	-10.1864
▁degrees	-10.1864
ini	-10.1875
▁scientists	-10.1878
▁toronto	-10.1879
▁movements	-10.189
▁gr	-10.1891
▁puerto	-10.1892
▁stadium	-10.19
lan	-10.1901
head	-10.1903
▁pilot	-10.1905
▁drawn	-10.1905
▁capacity	-10.191
▁root	-10.1914
▁ibm	-10.1915
▁samuel	-10.1924
ino	-10.1927
▁singles	-10.193
▁communication	-10.1933
▁lawrence	-10.1935
▁machines	-10.1936
▁revealed	-10.1938
▁broke	-10.1939
▁achieved	-10.1939
ance	-10.1946
▁spin	-10.1946
sk	-10.1948
▁roughly	-10.1952
▁walk	-10.1956
▁hero	-10.1957
ians	-10.196
▁chapter	-10.196
▁publishing	-10.196
▁buried	-10.1985
▁senior	-10.1985
▁pakistan	-10.1987
▁providing	-10.1998
▁agricultural	-10.2
unction	-10.2004
▁maria	-10.2008
ach	-10.2009
ve	-10.2012
▁origins	-10.2018
▁task	-10.2025
▁engineer	-10.2032
▁bear	-10.2036
▁bodies	-10.2036
▁massive	-10.2038
▁snow	-10.204
▁showed	-10.205
▁unable	-10.2052
▁ti	-10.2053
▁brand	-10.2054
▁strike	-10.2054
▁circuit	-10.2055
▁strip	-10.2062
▁transfer	-10.2078
▁drama	-10.2078
amin	-10.208
▁instrument	-10.2081
▁parish	-10.2082
▁expression	-10.2085
▁economics	-10.2088
▁neither	-10.209
▁philadelphia	-10.209
▁heard	-10.2094
▁worldwide	-10.2096
▁dictionary	-10.2099
uestions	-10.2104
▁aspects	-10.2105
▁max	-10.2109
▁colony	-10.211
▁winner	-10.2111
▁vehicle	-10.2112
▁violence	-10.2113
▁op	-10.2115
▁everything	-10.212
▁hop	-10.2149
▁ng	-10.2149
▁disney	-10.2153
▁pe	-10.2153
▁allen	-10.2156
▁medium	-10.2168
▁mental	-10.218
▁height	-10.2185
▁clark	-10.2197
oc	-10.2199
▁socialist	-10.2209
▁sugar	-10.2216
uantum	-10.2218
▁ultimately	-10.2223
▁guns	-10.2227
▁greatly	-10.224
▁producing	-10.2244
▁racing	-10.2246
▁colonial	-10.225
▁seem	-10.2252
▁agent	-10.2252
ology	-10.2252
▁farm	-10.2253
▁si	-10.2253
▁vehicles	-10.2256
ano	-10.2282
▁logo	-10.2285
▁wa	-10.229
▁lo	-10.2291
all	-10.2292
ae	-10.2295
▁mike	-10.2296
▁obtained	-10.2296
▁contributions	-10.2297
▁extent	-10.2307
▁plus	-10.231
ny	-10.2311
and	-10.2311
▁random	-10.2313
▁auto	-10.2327
▁expanded	-10.2328
gi	-10.2328
▁representation	-10.2329
▁destruction	-10.2331
▁tony	-10.2334
▁pierre	-10.2338
▁enter	-10.234
▁adams	-10.2341
ii	-10.2343
▁sp	-10.235
▁document	-10.2359
▁bowl	-10.236
▁facilities	-10.2362
▁arc	-10.2371
▁fr	-10.2379
▁agency	-10.2379
▁storm	-10.2383
he	-10.2385
▁kg	-10.2387
▁factors	-10.2388
▁moore	-10.2391
▁writings	-10.2392
▁grey	-10.2394
gen	-10.2395
▁alan	-10.2399
▁publication	-10.2405
va	-10.2406
▁territories	-10.2407
▁fly	-10.2416
▁describes	-10.2417
▁broken	-10.2417
▁rural	-10.2421
▁baby	-10.2421
izing	-10.2428
ell	-10.2433
▁retired	-10.2434
▁peninsula	-10.2434
▁theorem	-10.2436
▁trying	-10.2438
▁motor	-10.2439
▁uss	-10.2439
▁chairman	-10.244
▁roger	-10.2447
▁ending	-10.2448
▁austrian	-10.246
▁doctrine	-10.2462
▁creative	-10.2473
▁teaching	-10.2482
af	-10.2485
▁municipal	-10.2486
▁arabic	-10.2494
port	-10.2499
▁cable	-10.2502
▁fellow	-10.2502
dale	-10.2502
▁karl	-10.2503
▁libraries	-10.2504
▁strategy	-10.2506
▁sought	-10.2511
▁painter	-10.2513
▁federation	-10.2515
▁pronounced	-10.252
▁desert	-10.2522
▁reduce	-10.2523
▁col	-10.2528
▁roads	-10.2531
erusalem	-10.2531
▁selling	-10.2532
▁lands	-10.2534
▁trek	-10.2536
▁tim	-10.2537
▁sort	-10.2549
▁fruit	-10.2553
▁charter	-10.2555
▁hamilton	-10.256
▁resolution	-10.2578
cy	-10.2585
▁overall	-10.26
▁respectively	-10.2604
▁gen	-10.2605
▁pair	-10.2612
▁commons	-10.2622
▁basketball	-10.2623
▁regarding	-10.2625
▁peak	-10.2626
▁va	-10.2631
▁parks	-10.2637
▁policies	-10.2638
uel	-10.2639
▁processes	-10.265
si	-10.265
▁protect	-10.2652
▁practical	-10.2654
▁progress	-10.2657
▁electrical	-10.2661
▁capable	-10.2665
▁understand	-10.2665
▁iran	-10.2667
▁representatives	-10.267
▁shared	-10.2674
▁goods	-10.2676
▁votes	-10.2686
yl	-10.2688
▁holding	-10.2688
▁severe	-10.2689
▁norwegian	-10.2699
▁fran	-10.27
▁rain	-10.2704
▁pin	-10.2704
way	-10.2706
▁clearly	-10.2707
▁persian	-10.2708
▁suicide	-10.2708
▁onto	-10.2708
▁serves	-10.2712
▁speak	-10.2725
uin	-10.2726
▁twelve	-10.2727
ani	-10.2729
sp	-10.2731
▁establishment	-10.2737
▁danish	-10.2741
▁alaska	-10.2754
▁ya	-10.2759
▁characteristics	-10.2763
▁maine	-10.2767
▁finished	-10.2768
▁documents	-10.2773
▁mars	-10.2774
▁beautiful	-10.2776
▁coalition	-10.2776
▁magnetic	-10.2779
▁rarely	-10.2784
▁hockey	-10.2785
▁expressed	-10.2787
ating	-10.2801
▁demand	-10.2803
▁hits	-10.2803
aw	-10.2808
▁nebraska	-10.2816
▁elementary	-10.2826
▁tea	-10.2827
▁mobile	-10.2827
side	-10.2841
▁dragon	-10.2844
▁files	-10.285
po	-10.2857
▁br	-10.2858
▁underground	-10.2863
▁gene	-10.2863
▁causing	-10.2866
▁composition	-10.2866
▁trust	-10.2873
ica	-10.2882
▁commonwealth	-10.289
▁kennedy	-10.2894
▁brian	-10.2895
▁shi	-10.2896
▁launch	-10.2896
ula	-10.2897
▁neo	-10.2898
uad	-10.2898
▁portugal	-10.2898
▁animated	-10.2907
ang	-10.291
ver	-10.2912
▁dates	-10.2913
▁mile	-10.2916
▁strongly	-10.2921
▁authors	-10.2929
▁courts	-10.2931
▁stands	-10.2936
▁terminal	-10.2939
▁percent	-10.2942
▁tell	-10.2945
▁corner	-10.2946
▁hotel	-10.2963
one	-10.2965
▁apart	-10.2983
▁allied	-10.2997
▁debut	-10.2998
ial	-10.3001
▁eric	-10.3002
▁fear	-10.3006
▁argue	-10.3013
▁worth	-10.3025
▁processing	-10.3029
burg	-10.303
mann	-10.3038
▁hip	-10.3041
ub	-10.3041
▁tu	-10.3042
▁supporters	-10.305
▁accept	-10.3068
▁fashion	-10.3069
▁governments	-10.3072
▁taiwan	-10.3081
▁roots	-10.3083
▁opinion	-10.309
▁script	-10.3091
▁tribes	-10.3091
▁soft	-10.3093
▁determine	-10.3101
▁pen	-10.3105
▁rear	-10.3116
▁texts	-10.3116
▁observed	-10.3123
▁maintained	-10.3127
ag	-10.3128
▁continental	-10.3128
▁ku	-10.3128
▁narrow	-10.3131
▁cor	-10.3136
▁designs	-10.3136
▁calls	-10.3138
▁mouth	-10.314
▁influential	-10.3143
▁taught	-10.3151
▁interior	-10.3161
▁save	-10.3169
▁pure	-10.317
▁inner	-10.3175
▁fundamental	-10.3175
▁whereas	-10.3176
▁turkey	-10.3176
▁rapid	-10.3178
▁radical	-10.3179
▁girls	-10.318
▁philosopher	-10.3188
▁commerce	-10.3194
▁legislative	-10.3194
▁apr	-10.3198
▁thousand	-10.3198
▁adam	-10.3204
ix	-10.3209
▁visible	-10.321
ow	-10.3214
▁coat	-10.3217
▁else	-10.3219
▁row	-10.3222
▁developing	-10.3223
▁lay	-10.3228
▁watch	-10.3229
▁radiation	-10.3232
▁harbor	-10.3232
▁mad	-10.3239
▁lie	-10.3239
▁twin	-10.3239
▁sal	-10.3241
▁attacked	-10.3253
ose	-10.3255
▁banks	-10.3258
▁locations	-10.3258
▁historian	-10.3259
▁chance	-10.3267
▁plain	-10.3268
▁dropped	-10.3275
▁similarly	-10.3275
lon	-10.3282
chi	-10.3287
▁ministry	-10.329
▁alpha	-10.3295
ber	-10.3299
▁punk	-10.3308
▁ro	-10.332
▁mp	-10.332
▁favor	-10.3321
▁angel	-10.3323
▁pain	-10.3326
▁divine	-10.3326
▁poem	-10.3326
ker	-10.3327
▁admiral	-10.3328
▁chris	-10.3329
▁democracy	-10.3337
▁drugs	-10.3344
▁server	-10.3348
▁didn	-10.335
▁profile	-10.3357
▁hal	-10.3374
uarter	-10.3375
▁hungary	-10.3378
tus	-10.338
▁conducted	-10.3393
▁poems	-10.3397
▁hardware	-10.3399
▁abandoned	-10.3399
▁interpretation	-10.3399
▁christians	-10.3401
efferson	-10.3403
ai	-10.3403
▁infantry	-10.341
▁switzerland	-10.3424
▁detailed	-10.3424
▁officials	-10.3425
▁ce	-10.3427
▁essentially	-10.3429
▁cap	-10.343
▁afterwards	-10.3436
▁clinton	-10.3438
hi	-10.3445
eg	-10.3446
▁belgium	-10.3449
▁vast	-10.3452
ski	-10.3458
▁giant	-10.3463
▁superior	-10.3466
ata	-10.3468
▁estate	-10.3472
▁tank	-10.3475
▁dna	-10.3475
▁coach	-10.3476
▁gallery	-10.3478
▁hungarian	-10.3481
ordan	-10.3486
▁ab	-10.3491
om	-10.35
▁owner	-10.3515
▁marie	-10.3522
▁floor	-10.353
▁norman	-10.3532
▁layer	-10.3533
▁historians	-10.3534
iv	-10.3536
▁copy	-10.3538
▁carrier	-10.3541
▁nominated	-10.3541
▁newly	-10.3546
▁ham	-10.3547
▁improved	-10.3554
▁lieutenant	-10.3559
▁laid	-10.3561
▁las	-10.3564
▁employed	-10.3564
▁tourism	-10.357
▁protocol	-10.3572
▁impossible	-10.3573
▁invented	-10.3575
▁chancellor	-10.3577
▁genre	-10.358
▁proof	-10.3581
yn	-10.3587
▁decline	-10.3588
▁tools	-10.3591
▁philippines	-10.3608
ney	-10.3613
▁wine	-10.3616
▁false	-10.362
▁patients	-10.3622
▁colleges	-10.3627
▁soldier	-10.3629
▁distinguished	-10.363
▁und	-10.363
▁components	-10.3631
▁assigned	-10.364
▁capture	-10.3645
▁minute	-10.365
▁couple	-10.3651
▁measures	-10.3655
▁widespread	-10.3656
▁nevertheless	-10.3661
▁mos	-10.3666
▁har	-10.3669
▁arizona	-10.3672
▁linked	-10.3674
▁assumed	-10.3676
uences	-10.3677
ze	-10.3686
▁rapidly	-10.369
▁credit	-10.3692
▁alfred	-10.3692
▁vision	-10.3694
▁traditions	-10.3695
▁sweet	-10.3697
▁planning	-10.3697
▁protected	-10.3698
▁ri	-10.3708
▁mainstream	-10.3708
▁error	-10.3711
▁genetic	-10.3712
▁landing	-10.3715
▁ill	-10.3724
▁miller	-10.373
▁painting	-10.3736
▁platform	-10.3737
▁moment	-10.3741
▁fit	-10.3744
▁signs	-10.3757
▁ago	-10.3758
uit	-10.3759
▁sydney	-10.3769
▁edited	-10.3771
▁avenue	-10.3776
cha	-10.3776
▁interests	-10.3778
▁swiss	-10.378
▁consisting	-10.3785
▁val	-10.3786
uation	-10.379
▁teacher	-10.3792
▁vector	-10.3792
▁reserve	-10.3795
▁recognition	-10.3804
▁selection	-10.3806
ets	-10.3817
▁occupation	-10.3818
▁suit	-10.382
▁soil	-10.3826
▁visited	-10.3827
▁partly	-10.3831
▁budget	-10.3835
▁items	-10.3843
▁exception	-10.3844
▁cc	-10.3846
▁anglo	-10.3847
▁fat	-10.385
▁grow	-10.385
ster	-10.3851
▁leads	-10.3853
▁successor	-10.3856
▁bruce	-10.3864
▁metro	-10.3865
▁unusual	-10.3867
▁merely	-10.3869
▁pat	-10.3877
▁situated	-10.3887
▁sunday	-10.3888
ena	-10.3889
▁incident	-10.3892
▁draw	-10.3892
▁separated	-10.3897
rt	-10.3899
▁bio	-10.3903
▁theater	-10.3905
▁fighter	-10.3907
▁angle	-10.3907
▁coal	-10.3909
▁effectively	-10.391
▁frame	-10.3913
▁egyptian	-10.3917
▁headed	-10.3922
▁door	-10.3933
▁roles	-10.3937
ida	-10.3944
▁decade	-10.3946
▁passing	-10.3948
▁interesting	-10.3948
▁networks	-10.3948
dy	-10.395
▁stay	-10.3956
▁graphics	-10.3959
▁anyone	-10.3962
▁su	-10.3962
▁distributed	-10.3973
▁rates	-10.3975
▁advance	-10.3983
▁indicate	-10.3986
▁exactly	-10.4003
ap	-10.4006
▁poly	-10.4011
▁progressive	-10.4012
istic	-10.4015
▁essential	-10.4016
▁threat	-10.404
▁camera	-10.4045
bar	-10.4048
▁algorithm	-10.4052
▁extension	-10.4059
▁oh	-10.4061
▁changing	-10.4067
▁fl	-10.4072
▁alphabet	-10.4078
▁palm	-10.4078
▁wheel	-10.4082
▁russell	-10.409
▁knight	-10.4092
▁chemistry	-10.4094
▁bull	-10.4099
▁shore	-10.4099
ran	-10.4104
▁allies	-10.4106
ans	-10.4114
▁guy	-10.4115
ourney	-10.4118
▁leg	-10.4122
▁apparent	-10.4123
▁gi	-10.4123
▁missile	-10.4125
▁literally	-10.4125
▁involving	-10.4126
▁industries	-10.4128
▁distinction	-10.4132
▁lakes	-10.4139
▁hitler	-10.4148
▁attached	-10.415
▁orbit	-10.4155
▁costs	-10.4155
▁borders	-10.4158
ella	-10.4161
▁miss	-10.4161
▁performing	-10.4161
▁learn	-10.4163
▁welsh	-10.4165
▁achieve	-10.417
▁wrong	-10.4172
▁align	-10.4173
▁clock	-10.4173
▁walls	-10.4173
▁matrix	-10.4181
ites	-10.4186
▁filled	-10.4192
▁turkish	-10.4197
▁exact	-10.4198
▁philosophical	-10.42
ise	-10.4203
ide	-10.4203
▁mechanical	-10.4207
▁rocket	-10.421
▁viewed	-10.421
▁protestant	-10.4212
▁telephone	-10.4212
▁expensive	-10.4214
▁successfully	-10.4215
▁relation	-10.4231
▁offers	-10.4235
▁log	-10.4236
mon	-10.4236
▁print	-10.4238
▁vs	-10.4246
▁graphic	-10.4247
▁dam	-10.4248
ev	-10.4248
ho	-10.4249
▁choose	-10.4251
▁accounts	-10.4251
▁kent	-10.4253
▁educational	-10.4256
▁wear	-10.4259
▁executed	-10.4261
▁rebellion	-10.4264
▁establish	-10.4268
ons	-10.4268
▁hundreds	-10.4288
▁shell	-10.4289
▁converted	-10.4291
▁ga	-10.4292
ex	-10.4296
▁gender	-10.43
▁accused	-10.4302
▁beliefs	-10.4303
▁finnish	-10.4304
▁mel	-10.431
▁wiki	-10.4312
▁sounds	-10.4316
▁gradually	-10.432
▁sell	-10.4322
▁merged	-10.4323
▁getting	-10.4326
▁involves	-10.4327
▁linux	-10.4331
eff	-10.4332
▁chart	-10.4334
▁covers	-10.434
▁sections	-10.434
▁manufacturing	-10.4341
▁experiment	-10.4347
ea	-10.4353
▁represents	-10.4353
▁cult	-10.4353
▁heaven	-10.4365
▁committed	-10.4366
▁virtual	-10.4375
▁streets	-10.4377
▁minority	-10.4382
vi	-10.4392
▁moves	-10.4398
▁significantly	-10.4402
▁virgin	-10.4409
▁tells	-10.4419
▁historically	-10.442
ative	-10.4424
▁houston	-10.4426
ump	-10.4427
▁practices	-10.4431
▁hampshire	-10.4431
ning	-10.4432
▁anthony	-10.4438
nes	-10.4442
▁driver	-10.4442
▁rice	-10.4447
▁disc	-10.4449
▁assistant	-10.445
▁firm	-10.4451
▁gray	-10.4452
▁dangerous	-10.4456
▁springs	-10.4465
▁mono	-10.4468
▁storage	-10.4476
▁titled	-10.4479
▁appropriate	-10.4484
▁regime	-10.4484
▁contributed	-10.4484
▁atmosphere	-10.4486
▁connecticut	-10.4486
ita	-10.4488
▁transmission	-10.449
▁classification	-10.4491
min	-10.4493
▁ideal	-10.4494
her	-10.4496
▁testing	-10.4497
▁mor	-10.4497
▁tape	-10.4499
▁biological	-10.4507
ez	-10.4508
▁grown	-10.4512
▁ross	-10.4512
▁treated	-10.4515
▁mario	-10.4519
▁concepts	-10.4523
▁interface	-10.4528
▁baron	-10.4534
▁caesar	-10.4535
▁ministers	-10.4546
▁membership	-10.4549
▁limits	-10.4558
▁variations	-10.456
▁arrested	-10.4565
▁noise	-10.4568
▁ruler	-10.4569
▁adapted	-10.4571
▁personality	-10.4577
▁ratio	-10.4582
com	-10.4583
ship	-10.4588
▁gone	-10.4591
▁liberty	-10.4594
udaism	-10.46
bi	-10.4603
▁safe	-10.4605
▁boundary	-10.4607
▁herself	-10.4621
▁cal	-10.4623
▁improve	-10.4623
▁meat	-10.4624
▁oak	-10.4641
▁emergency	-10.4642
▁learned	-10.4648
▁declaration	-10.4655
▁cl	-10.4656
▁politicians	-10.4657
▁tro	-10.466
uc	-10.4666
▁phil	-10.467
▁victor	-10.4679
▁identical	-10.4683
▁answer	-10.4693
▁wapcaplet	-10.4694
▁clubs	-10.4695
▁nova	-10.4697
▁wins	-10.4704
ator	-10.4705
▁meters	-10.4708
▁divisions	-10.4709
▁balance	-10.471
if	-10.4715
tes	-10.4715
▁continuous	-10.4717
▁colour	-10.4721
▁colonies	-10.4725
▁operate	-10.4726
▁existed	-10.4727
▁copies	-10.4733
▁gate	-10.4734
▁utah	-10.4736
hu	-10.475
▁speakers	-10.4758
▁er	-10.4761
▁marshall	-10.4761
▁vary	-10.4764
▁succession	-10.4764
▁dominant	-10.4766
▁margaret	-10.4777
▁driven	-10.4778
▁coastal	-10.4778
▁bought	-10.4779
▁thirty	-10.4784
▁replace	-10.4786
▁ordinary	-10.4787
▁trip	-10.4788
▁ep	-10.4807
▁ren	-10.4809
▁scenes	-10.4814
▁disk	-10.4815
ax	-10.4829
▁recordings	-10.483
▁printed	-10.4835
▁unless	-10.4842
▁tall	-10.4844
▁charged	-10.4848
▁seasons	-10.4851
▁rival	-10.4862
▁characteristic	-10.4863
▁testament	-10.4863
sc	-10.4864
len	-10.4867
▁grade	-10.4872
▁tube	-10.4873
▁hindu	-10.4882
▁abbey	-10.4889
▁amongst	-10.4895
illa	-10.4895
▁shaped	-10.4899
ile	-10.4903
▁input	-10.4908
▁transferred	-10.4908
▁briefly	-10.4909
▁cr	-10.491
▁bow	-10.4918
▁tourist	-10.4919
▁rising	-10.4927
▁alternate	-10.4934
▁corporate	-10.4934
▁tone	-10.4947
▁institution	-10.4952
▁ron	-10.4957
▁bound	-10.496
▁trains	-10.4967
▁formally	-10.4969
▁mainland	-10.4972
▁den	-10.4974
▁factory	-10.4977
▁supposed	-10.4979
▁probability	-10.4979
▁var	-10.498
▁siege	-10.4981
dforrester	-10.4985
▁regard	-10.499
▁dominated	-10.4998
▁stores	-10.4998
▁please	-10.5006
▁collected	-10.5011
▁harvard	-10.5011
▁drop	-10.5012
▁anderson	-10.5013
▁illegal	-10.5014
▁returning	-10.5015
▁ann	-10.5016
▁survived	-10.5017
▁founding	-10.5019
▁desire	-10.5021
▁tail	-10.5027
▁adding	-10.503
▁olympics	-10.503
▁tr	-10.503
▁tool	-10.5036
▁cultures	-10.5038
▁fur	-10.504
▁worship	-10.504
▁spot	-10.5043
▁plate	-10.5044
▁intellectual	-10.5047
▁scheme	-10.5052
▁sch	-10.5053
▁suggests	-10.5053
▁depression	-10.506
▁trail	-10.5063
▁manchester	-10.5065
▁tribe	-10.5068
▁cha	-10.507
▁ger	-10.5072
▁component	-10.5072
▁patrick	-10.5074
▁publications	-10.5077
ram	-10.5084
▁dispute	-10.5087
▁conventional	-10.5088
▁che	-10.5089
▁affected	-10.5105
▁calling	-10.5107
▁dublin	-10.5111
▁forum	-10.5124
▁goals	-10.5124
▁khan	-10.5126
▁christopher	-10.5129
pe	-10.513
▁currency	-10.5132
▁enterprise	-10.5132
▁wealth	-10.5135
ohnny	-10.5144
▁purchased	-10.5147
let	-10.5147
▁apply	-10.5149
sville	-10.5152
▁personnel	-10.5152
▁psychology	-10.5156
▁variable	-10.5159
ala	-10.516
▁empty	-10.5164
▁sharp	-10.5164
▁napoleon	-10.5165
▁legislation	-10.5167
▁billy	-10.5168
▁styles	-10.5169
▁sector	-10.5171
▁passage	-10.5172
▁charges	-10.5182
nt	-10.5188
▁knights	-10.5194
immy	-10.5201
▁photos	-10.5207
han	-10.5207
▁coup	-10.5212
▁passes	-10.5215
▁cardinal	-10.5221
▁altered	-10.5227
▁violent	-10.523
▁nfl	-10.523
▁battles	-10.5231
▁statue	-10.5233
▁obtain	-10.5244
▁prices	-10.5245
▁artificial	-10.5246
▁composers	-10.5249
▁heads	-10.5256
▁min	-10.5257
▁conversion	-10.5257
▁vienna	-10.5263
▁documentary	-10.5263
▁prepared	-10.5263
▁passenger	-10.5264
▁routes	-10.5267
▁assault	-10.5269
▁trading	-10.5272
▁experienced	-10.5274
▁buy	-10.5276
▁czech	-10.5276
tz	-10.5277
▁offensive	-10.5279
▁alcohol	-10.5284
▁dave	-10.5286
▁yu	-10.5287
▁warfare	-10.529
▁parliamentary	-10.5292
▁forests	-10.5294
stone	-10.5296
▁amendment	-10.53
▁sword	-10.5308
▁expedition	-10.5313
▁byzantine	-10.5315
▁grounds	-10.5317
▁fred	-10.5318
▁sk	-10.5327
▁fe	-10.5332
▁profit	-10.5339
▁steam	-10.5341
▁hunt	-10.5341
▁gordon	-10.5342
▁particles	-10.5343
▁partner	-10.5344
▁stanley	-10.5351
▁cook	-10.5352
▁begun	-10.5354
▁oriented	-10.5356
▁provincial	-10.5367
▁investment	-10.5371
▁symptoms	-10.5371
▁appeal	-10.5374
▁settlers	-10.5375
▁struggle	-10.5376
▁hole	-10.5377
▁drawing	-10.5383
▁computing	-10.5386
▁mal	-10.539
▁portrait	-10.5403
▁stream	-10.5405
▁mini	-10.5409
oke	-10.541
▁bas	-10.5423
ud	-10.5423
▁drums	-10.5425
▁sample	-10.5425
▁gang	-10.5426
ada	-10.5427
▁wayne	-10.5427
▁depth	-10.5434
▁winners	-10.5435
▁trivia	-10.5437
▁biggest	-10.5439
▁aka	-10.5444
▁till	-10.5444
so	-10.5446
▁fresh	-10.5446
▁priest	-10.5451
▁variation	-10.5456
▁milk	-10.5456
▁hat	-10.5466
▁symbols	-10.5471
▁broadway	-10.5476
▁courtesy	-10.5478
▁stable	-10.5479
▁markets	-10.5486
▁donald	-10.5488
ima	-10.5489
▁dick	-10.5498
▁grace	-10.5499
▁losing	-10.5501
▁generated	-10.5502
▁transit	-10.5511
▁educated	-10.5513
▁bgcolor	-10.5515
▁imp	-10.5515
▁fishing	-10.5521
ken	-10.5527
▁fm	-10.5528
▁ski	-10.553
isation	-10.5532
▁weak	-10.5538
▁concerns	-10.554
▁experimental	-10.5546
▁concerned	-10.5549
▁duty	-10.5564
▁fairly	-10.5565
▁carrying	-10.5569
▁doesn	-10.5574
▁earned	-10.5575
▁matters	-10.5577
▁forming	-10.5584
▁em	-10.5585
▁finding	-10.5585
▁peoples	-10.559
unior	-10.5592
▁absolute	-10.5592
tin	-10.5593
▁flash	-10.5593
uick	-10.5593
▁benefit	-10.5593
uri	-10.5595
tra	-10.5597
▁pot	-10.5598
▁finance	-10.5599
vo	-10.56
▁patterns	-10.5603
▁alleged	-10.5603
ured	-10.5606
▁newton	-10.5609
▁warren	-10.5611
▁comparison	-10.5618
▁circumstances	-10.5619
▁ottoman	-10.5623
▁sat	-10.5624
▁send	-10.5626
▁uncle	-10.5631
▁organic	-10.564
▁pine	-10.5645
▁skills	-10.5645
▁papers	-10.5646
▁guest	-10.5647
▁vii	-10.565
▁singing	-10.5652
▁grammar	-10.5659
▁cemetery	-10.5659
▁apollo	-10.5659
▁voting	-10.5668
▁wolf	-10.5668
▁democrat	-10.5673
▁width	-10.5676
▁partial	-10.5677
▁remove	-10.5679
▁pl	-10.5683
▁patent	-10.5685
▁feb	-10.5691
▁driving	-10.5696
▁hyper	-10.5698
▁diet	-10.57
▁arrival	-10.5701
sch	-10.5703
off	-10.5708
▁para	-10.5712
▁za	-10.5714
▁opportunity	-10.5716
ok	-10.5721
▁prove	-10.5724
▁eat	-10.5725
▁happened	-10.5725
▁premier	-10.5727
▁anime	-10.5733
▁stewart	-10.5733
▁disorder	-10.5735
▁tennis	-10.574
▁tokyo	-10.5743
▁arch	-10.5744
▁happy	-10.5745
▁singapore	-10.575
▁turns	-10.5755
▁celtic	-10.5757
▁sha	-10.5759
pi	-10.5762
▁nelson	-10.5765
▁nasa	-10.577
▁atomic	-10.5772
ence	-10.5773
▁oxygen	-10.5776
▁uniform	-10.5779
▁athens	-10.5779
ournalist	-10.5787
▁cartoon	-10.5788
▁oct	-10.58
▁ur	-10.5802
▁electricity	-10.5805
▁confused	-10.5806
▁periods	-10.5809
▁relationships	-10.5811
▁ridge	-10.5822
▁challenge	-10.5825
▁residence	-10.5826
▁cow	-10.5826
▁responsibility	-10.5828
▁hydrogen	-10.5832
▁strategic	-10.5836
▁organisation	-10.584
▁possibility	-10.5845
▁gar	-10.585
▁opponents	-10.5854
▁societies	-10.5857
▁define	-10.5857
▁usual	-10.586
▁palestinian	-10.5861
ris	-10.5862
▁pink	-10.5863
cl	-10.5867
▁iso	-10.5868
▁campbell	-10.5869
▁tests	-10.587
▁serial	-10.5872
▁tra	-10.5873
▁euro	-10.5876
ding	-10.5879
▁suggest	-10.5883
▁horn	-10.5887
▁eagle	-10.589
era	-10.5899
▁draft	-10.5902
▁phone	-10.5902
▁outer	-10.5904
▁receiving	-10.5909
▁waters	-10.5913
▁crash	-10.5918
▁moscow	-10.5918
▁colonel	-10.5925
▁mer	-10.5926
▁emphasis	-10.593
ich	-10.5932
▁restored	-10.5934
▁romania	-10.5935
▁poets	-10.5941
▁victims	-10.5946
▁understood	-10.5947
iz	-10.5949
▁everyone	-10.5951
▁ali	-10.5953
▁permanently	-10.5953
▁sar	-10.5954
▁substantial	-10.5954
▁bu	-10.5954
out	-10.5959
▁reverse	-10.5968
▁necessarily	-10.5969
▁offices	-10.5973
▁agents	-10.5978
▁vocal	-10.5979
▁enemies	-10.5983
▁goddess	-10.5983
▁promoted	-10.5983
▁rio	-10.5984
▁broadcasting	-10.5985
▁thinking	-10.5989
▁evolved	-10.5991
▁pdf	-10.5991
▁corresponding	-10.5993
▁morgan	-10.5993
▁submarine	-10.5994
▁archbishop	-10.5999
▁sixth	-10.6
▁ki	-10.6008
▁abc	-10.6008
▁window	-10.6011
▁appearances	-10.6015
▁laboratory	-10.6018
▁purchase	-10.602
▁consumer	-10.6022
▁favour	-10.6022
▁colors	-10.6022
▁exile	-10.6023
▁corn	-10.6025
▁branches	-10.6025
▁concerning	-10.6032
our	-10.6034
▁shift	-10.6038
▁signals	-10.6045
▁facility	-10.6048
▁faster	-10.6048
▁protein	-10.6056
of	-10.6056
▁argentina	-10.6057
▁listing	-10.6057
▁execution	-10.6059
▁resource	-10.6068
▁fired	-10.6071
▁shadow	-10.6073
▁chose	-10.6074
▁detroit	-10.608
▁sentence	-10.6085
▁mit	-10.609
sky	-10.6093
ail	-10.6093
▁pearl	-10.6096
▁matt	-10.6096
▁slave	-10.6099
▁wish	-10.611
▁marketing	-10.6111
▁voted	-10.6119
▁mechanics	-10.612
▁roosevelt	-10.6125
▁knew	-10.6128
▁gets	-10.6134
▁interested	-10.6135
su	-10.6137
▁ap	-10.6138
▁miami	-10.6144
▁clay	-10.6144
▁caught	-10.615
▁hart	-10.6154
ug	-10.6155
▁hans	-10.6155
▁fund	-10.6156
▁hidden	-10.6158
▁adventure	-10.6161
▁kan	-10.6165
▁muslims	-10.6168
▁axis	-10.6168
▁cave	-10.617
worth	-10.6171
▁secure	-10.6171
▁measured	-10.6176
▁classified	-10.6177
▁myth	-10.6182
▁tropical	-10.6185
▁celebrated	-10.6188
▁germans	-10.6189
▁accident	-10.6192
▁distinctive	-10.6193
▁attributed	-10.6196
▁sufficient	-10.6197
▁trained	-10.6198
▁pet	-10.6201
▁longest	-10.6205
▁tunnel	-10.6206
▁speaker	-10.6208
▁vermont	-10.6209
▁programme	-10.6212
▁organ	-10.6213
▁explain	-10.6214
▁kim	-10.6217
▁conduct	-10.6218
▁lang	-10.6221
ities	-10.6223
▁excellent	-10.6224
▁civilization	-10.6225
▁performances	-10.6225
▁codes	-10.623
▁faced	-10.6231
▁symphony	-10.6233
▁amounts	-10.6234
▁descent	-10.6237
▁bone	-10.6241
▁rico	-10.6248
▁destroy	-10.6251
▁representing	-10.6262
▁mix	-10.6262
▁elsewhere	-10.6266
▁commissioned	-10.6267
▁register	-10.6269
▁categories	-10.6269
▁rings	-10.6274
▁keeping	-10.6276
▁ruling	-10.6277
▁replacement	-10.6278
▁regiment	-10.6278
▁cash	-10.6279
▁steps	-10.6288
▁holiday	-10.6288
▁bal	-10.6293
▁ready	-10.6303
▁blind	-10.6304
▁renaissance	-10.6305
▁facts	-10.6306
▁candidates	-10.6306
▁credited	-10.6307
▁operator	-10.6307
▁indigenous	-10.6308
▁sleep	-10.6309
▁orleans	-10.6311
▁contest	-10.6312
edi	-10.6314
▁adventures	-10.6314
▁aspect	-10.6317
▁ash	-10.6324
▁perceived	-10.6326
az	-10.6326
more	-10.6331
▁boundaries	-10.6333
▁engaged	-10.6337
▁ms	-10.6338
▁lords	-10.6339
ef	-10.6341
▁delivered	-10.6343
▁cam	-10.6345
ato	-10.6346
▁produces	-10.6347
che	-10.635
▁copper	-10.6355
▁virtually	-10.6358
we	-10.6359
▁fluid	-10.636
▁closer	-10.6362
red	-10.6362
▁themes	-10.6362
▁saints	-10.6364
br	-10.6366
▁faculty	-10.6366
▁scientist	-10.6368
▁carter	-10.6369
▁beer	-10.6372
▁stress	-10.6378
▁newspapers	-10.6379
▁roy	-10.638
▁powered	-10.6386
▁ultimate	-10.6388
▁statistical	-10.6389
▁mining	-10.6391
▁romans	-10.6396
ib	-10.6399
▁yard	-10.6401
▁approved	-10.6402
▁dramatic	-10.6404
fi	-10.6404
erry	-10.6404
▁rev	-10.6405
▁accompanied	-10.6417
zo	-10.6417
▁dar	-10.6419
▁biology	-10.642
▁romantic	-10.642
▁partially	-10.6424
zi	-10.6426
▁ensure	-10.6426
▁tales	-10.6431
▁architect	-10.6435
▁breaking	-10.6437
▁timeline	-10.6445
▁voltage	-10.6449
▁survey	-10.6456
▁attend	-10.6456
▁spacecraft	-10.6459
▁referring	-10.6459
▁grove	-10.6461
▁belgian	-10.6461
▁unincorporated	-10.6461
▁column	-10.6466
ries	-10.6471
▁explanation	-10.6474
▁phenomenon	-10.6474
▁epic	-10.6474
ft	-10.6476
▁accurate	-10.6477
▁drew	-10.6481
▁rap	-10.6483
rin	-10.6491
▁cuba	-10.6504
▁animation	-10.6505
▁thin	-10.6508
▁crystal	-10.6512
ette	-10.6518
▁experiments	-10.6519
▁evening	-10.652
▁seemed	-10.652
mont	-10.6521
▁boeing	-10.6526
▁additionally	-10.6527
ms	-10.6539
▁fun	-10.6552
▁archive	-10.6552
▁coins	-10.6554
▁visitors	-10.6555
▁collapse	-10.6557
ett	-10.656
▁affair	-10.6561
▁homes	-10.6562
▁reaching	-10.6569
ath	-10.657
▁slowly	-10.6576
▁wings	-10.6576
▁abuse	-10.6579
▁mathematician	-10.658
▁meanings	-10.658
▁algebra	-10.6582
▁mechanism	-10.6583
▁guinea	-10.6584
▁explained	-10.6584
▁graduate	-10.6592
▁doubt	-10.6596
▁assistance	-10.6601
▁duck	-10.6602
▁depicted	-10.6603
▁confirmed	-10.6605
car	-10.6607
ors	-10.6608
▁anna	-10.6609
▁mont	-10.661
▁legendary	-10.6611
▁shakespeare	-10.6617
▁waves	-10.6619
▁seek	-10.6621
▁promote	-10.6625
bury	-10.6627
▁leo	-10.663
▁reduction	-10.6633
ati	-10.6635
▁dean	-10.6635
▁gal	-10.6637
▁directory	-10.6639
▁variant	-10.664
▁furthermore	-10.6647
▁immediate	-10.6649
▁custom	-10.6649
▁tan	-10.6654
bl	-10.6654
▁raw	-10.6659
av	-10.666
▁cleveland	-10.6664
▁novelist	-10.6666
▁investigation	-10.6668
▁functional	-10.6668
▁rush	-10.6669
▁monarch	-10.6674
▁norfolk	-10.6677
▁confederate	-10.668
▁loop	-10.6683
▁beauty	-10.6683
tis	-10.6688
▁diego	-10.6689
uirements	-10.669
▁relief	-10.6692
▁continuing	-10.6695
▁mediterranean	-10.6702
▁alice	-10.6703
▁tale	-10.6704
▁rod	-10.6704
▁viii	-10.6706
▁abstract	-10.6707
ohann	-10.6708
udicial	-10.6711
▁dating	-10.6715
▁minimum	-10.6721
▁legacy	-10.673
▁delaware	-10.673
▁dallas	-10.6731
▁preserved	-10.6732
▁bon	-10.6734
▁robinson	-10.6741
▁morris	-10.6744
▁resigned	-10.6744
▁sale	-10.6745
▁certainly	-10.6749
▁increases	-10.6751
res	-10.6752
▁aviation	-10.6753
▁harrison	-10.6762
▁massacre	-10.6762
▁cia	-10.6763
▁pitch	-10.6764
▁integrated	-10.6764
▁nickname	-10.6767
▁repeated	-10.6769
▁disambiguation	-10.6771
▁alien	-10.6777
▁spectrum	-10.6778
▁transition	-10.6778
ually	-10.678
▁im	-10.6781
▁char	-10.6781
pl	-10.6785
▁hawaii	-10.6787
▁starts	-10.6789
inus	-10.6794
▁sim	-10.6795
▁instruction	-10.6796
▁concentration	-10.6796
▁childhood	-10.6797
▁patient	-10.6799
▁dialect	-10.68
▁finds	-10.6803
▁shop	-10.6805
▁detail	-10.6808
ck	-10.6813
▁regularly	-10.6815
▁electoral	-10.6816
▁turning	-10.6821
▁admitted	-10.6823
ord	-10.6825
▁familiar	-10.6826
oyed	-10.6827
▁neutral	-10.6832
fl	-10.6836
▁dimensional	-10.6839
▁drum	-10.6839
ical	-10.684
▁montgomery	-10.6842
ess	-10.6846
▁surrounded	-10.6847
▁yo	-10.6848
▁gary	-10.6849
▁licence	-10.6852
▁caribbean	-10.6855
nic	-10.6856
▁tribute	-10.6861
▁lane	-10.6867
▁alumni	-10.6867
▁opponent	-10.6874
▁prayer	-10.6875
▁wo	-10.6877
▁originated	-10.6883
fer	-10.6883
▁volumes	-10.6884
▁triple	-10.6888
▁harris	-10.6891
▁lesser	-10.6892
▁ward	-10.6896
▁bibliography	-10.6896
▁engineers	-10.6896
ring	-10.6902
▁heights	-10.6906
▁gospel	-10.6906
obs	-10.6907
▁optical	-10.6909
▁crossing	-10.6915
▁sacred	-10.6918
▁ber	-10.6922
▁concern	-10.6922
▁philosophers	-10.6925
▁dialects	-10.693
▁mrs	-10.693
▁mirror	-10.6933
▁indians	-10.6934
▁duties	-10.6936
▁larry	-10.6936
▁obvious	-10.6939
▁cited	-10.6941
▁mega	-10.6944
▁behaviour	-10.6945
▁info	-10.6947
▁rescue	-10.6947
▁deputy	-10.6948
▁biblical	-10.6948
▁crimes	-10.6952
▁matthew	-10.6953
uadron	-10.6956
▁emerged	-10.6957
▁cool	-10.6961
▁manual	-10.6965
▁bath	-10.6965
▁robin	-10.6968
▁golf	-10.6972
▁warm	-10.6974
cr	-10.6975
▁rom	-10.6976
▁wright	-10.6978
▁antonio	-10.6978
▁inch	-10.6979
▁montana	-10.6982
oan	-10.6982
▁check	-10.6983
▁friedrich	-10.6984
▁mounted	-10.6989
▁retained	-10.6991
▁notation	-10.6992
▁channels	-10.6994
▁ranked	-10.6994
ability	-10.6994
▁implementation	-10.6995
▁honour	-10.6996
▁exposure	-10.6997
▁ip	-10.6999
▁dogs	-10.7002
▁temperatures	-10.7007
▁stages	-10.7008
▁burning	-10.7008
▁pick	-10.701
▁agree	-10.7016
▁bronze	-10.7016
tan	-10.702
▁instrumental	-10.7028
▁preferred	-10.7033
▁weekly	-10.7036
▁civilian	-10.7037
▁bin	-10.7037
▁guitarist	-10.7038
▁bed	-10.7039
ari	-10.7042
▁mil	-10.7043
▁theology	-10.7045
▁pla	-10.705
my	-10.7051
▁bel	-10.7056
▁dollar	-10.7062
▁verb	-10.7063
▁armies	-10.7064
▁focused	-10.7066
▁resort	-10.7068
▁arranged	-10.707
▁lose	-10.7076
oma	-10.7078
▁drink	-10.7078
▁religions	-10.7078
har	-10.7084
▁finite	-10.709
▁struck	-10.7095
▁devoted	-10.71
ks	-10.7102
▁airline	-10.7105
▁yards	-10.7106
back	-10.7107
▁plastic	-10.7108
eb	-10.7109
▁buddhist	-10.711
▁punishment	-10.7115
▁kal	-10.7118
▁devil	-10.7127
▁diseases	-10.7129
▁mystery	-10.7131
▁prisoners	-10.7137
▁consisted	-10.7139
▁hunter	-10.714
eth	-10.7141
gg	-10.7142
▁gu	-10.7149
▁particle	-10.715
ora	-10.715
▁meanwhile	-10.7151
▁id	-10.7156
▁cole	-10.7156
▁legislature	-10.7157
▁soundtrack	-10.7158
og	-10.7158
▁debt	-10.7159
▁noble	-10.716
▁alive	-10.7161
▁wire	-10.7165
▁decisions	-10.7168
▁forth	-10.7177
▁shock	-10.7178
▁tournament	-10.7183
▁surviving	-10.7187
val	-10.7189
▁hunting	-10.719
▁canon	-10.719
▁hu	-10.719
▁sovereign	-10.719
▁montreal	-10.719
▁catch	-10.7193
ties	-10.7199
▁fled	-10.72
▁marks	-10.72
▁entrance	-10.72
▁bears	-10.7201
▁option	-10.7203
▁holland	-10.7204
▁dual	-10.7205
▁clean	-10.7206
▁verse	-10.7213
▁stopped	-10.7214
▁mod	-10.7215
▁bringing	-10.7215
▁possession	-10.7217
▁martial	-10.7224
ep	-10.7227
acob	-10.7231
▁encouraged	-10.7231
▁abraham	-10.7235
▁seal	-10.7235
▁strict	-10.7235
▁aim	-10.7236
ert	-10.724
▁neck	-10.7245
▁exercise	-10.7246
ren	-10.7247
▁owners	-10.725
▁businesses	-10.7252
air	-10.7253
tel	-10.7253
▁compact	-10.7254
▁mercury	-10.7261
▁pioneer	-10.7261
▁saturday	-10.7264
▁baker	-10.7268
▁ceremony	-10.7274
▁bart	-10.7276
▁bits	-10.728
▁spelling	-10.728
▁hudson	-10.7281
▁employees	-10.7283
▁monument	-10.7286
▁passengers	-10.7286
▁declined	-10.7294
▁integral	-10.7297
▁nintendo	-10.7297
▁lion	-10.7298
▁charts	-10.7298
▁switch	-10.7302
▁cbs	-10.7306
▁worst	-10.7308
▁seconds	-10.7308
▁session	-10.7311
▁bur	-10.7311
▁waste	-10.7315
▁technologies	-10.7321
gate	-10.7327
▁glen	-10.7328
▁diameter	-10.7331
▁disaster	-10.7332
▁thompson	-10.7334
las	-10.7335
▁characterized	-10.7342
▁binary	-10.7348
▁seventh	-10.7349
▁chair	-10.735
ona	-10.735
▁centers	-10.7352
▁geometry	-10.7354
▁consciousness	-10.7358
▁meta	-10.7364
▁starred	-10.7367
ensis	-10.7367
▁survive	-10.7368
▁odd	-10.7369
▁painted	-10.737
▁ol	-10.7372
▁covering	-10.7373
▁statements	-10.7375
▁buddhism	-10.7375
pen	-10.7377
▁psychological	-10.7378
▁creator	-10.7379
▁handed	-10.7382
▁gro	-10.7382
▁baltimore	-10.7388
▁wearing	-10.7391
▁elder	-10.7394
▁identify	-10.7396
▁citizen	-10.7399
▁gardens	-10.7399
▁banned	-10.7402
wi	-10.7403
▁nevada	-10.7405
▁sc	-10.7408
▁wu	-10.7415
▁tre	-10.7415
▁template	-10.7417
▁absence	-10.7422
▁followers	-10.7424
▁manga	-10.7425
▁hosted	-10.7428
cho	-10.7432
▁nu	-10.7433
▁funds	-10.7433
▁notion	-10.7434
▁grave	-10.7434
▁criticized	-10.7434
▁lunar	-10.7435
▁procedure	-10.7437
▁portrayed	-10.7441
▁benefits	-10.7451
▁ghost	-10.7454
▁harbour	-10.7456
▁situations	-10.7457
▁monarchy	-10.7458
▁operates	-10.7461
▁leaf	-10.7465
▁coin	-10.7466
tu	-10.7466
▁secular	-10.747
▁unix	-10.7472
▁belt	-10.7473
uake	-10.7476
▁overview	-10.7479
▁hy	-10.7485
▁dependent	-10.7491
tte	-10.7493
▁pole	-10.75
▁bernard	-10.7502
▁missions	-10.7503
▁isaac	-10.7505
rum	-10.7508
▁bat	-10.751
▁amateur	-10.7528
▁seattle	-10.7535
▁bag	-10.7537
▁atlanta	-10.7538
▁terrorist	-10.7541
▁mixture	-10.7542
▁bright	-10.7543
▁romance	-10.7544
▁favorite	-10.7551
▁infinite	-10.7557
ux	-10.756
▁lowest	-10.7563
▁studios	-10.7563
▁efficient	-10.7564
▁spaces	-10.7568
▁reforms	-10.7573
▁tur	-10.7577
war	-10.7581
▁wilhelm	-10.7585
▁singers	-10.7586
▁claiming	-10.7586
▁restoration	-10.759
▁alongside	-10.759
▁defensive	-10.7593
▁scheduled	-10.7595
▁rulers	-10.7596
▁graham	-10.7611
▁chapel	-10.7613
▁chip	-10.7615
▁arguments	-10.7615
▁easier	-10.7617
tre	-10.7618
sis	-10.7623
▁gravity	-10.7628
mus	-10.7629
bb	-10.763
▁sole	-10.7632
▁ag	-10.7634
▁perspective	-10.7642
▁acres	-10.7643
▁influences	-10.7644
▁nick	-10.7646
▁permission	-10.7647
▁vo	-10.7648
▁falling	-10.7649
▁clan	-10.765
▁vertical	-10.765
▁manufacturers	-10.7651
▁cinema	-10.7651
▁mouse	-10.7651
kh	-10.7651
▁returns	-10.7659
bra	-10.7666
▁missing	-10.7669
▁attracted	-10.7669
▁cousin	-10.767
▁charlie	-10.7671
▁difficulty	-10.7672
▁raise	-10.7672
▁galaxy	-10.7673
▁murray	-10.7677
tt	-10.768
▁bombing	-10.7681
▁temporary	-10.7683
▁suffering	-10.7685
eau	-10.7686
ery	-10.7687
ale	-10.7693
▁diamond	-10.7694
▁physicist	-10.7701
▁spider	-10.7709
▁nan	-10.771
▁strange	-10.7712
▁scholar	-10.7714
▁basin	-10.7719
▁nicholas	-10.7722
uch	-10.7722
▁revival	-10.7725
▁mention	-10.7726
▁remote	-10.7727
▁flowers	-10.7728
uet	-10.7737
▁gates	-10.7742
uiring	-10.7743
pp	-10.7744
▁ranks	-10.7744
▁otto	-10.7746
▁bor	-10.7747
▁connections	-10.775
▁artillery	-10.7757
▁mathbf	-10.7767
▁looks	-10.7768
▁romanian	-10.7777
▁beatles	-10.7779
▁aired	-10.7786
oining	-10.7794
▁publicly	-10.7797
▁mills	-10.7797
▁participate	-10.7799
▁barry	-10.7799
▁reed	-10.7801
▁graph	-10.7801
▁conservation	-10.7811
zer	-10.7811
▁sonic	-10.7815
▁essay	-10.7815
▁phoenix	-10.7817
ping	-10.7819
▁rolling	-10.782
▁soccer	-10.782
gan	-10.7822
▁flows	-10.7827
▁percentage	-10.783
▁cavalry	-10.7831
▁assassination	-10.7835
▁releases	-10.7838
▁artistic	-10.7841
▁electron	-10.7843
ama	-10.7844
▁confusion	-10.7845
▁syria	-10.7846
▁pronunciation	-10.7849
▁lock	-10.7856
▁victim	-10.7857
▁gnu	-10.7858
▁valuable	-10.7858
▁hypothesis	-10.7863
▁pm	-10.7872
▁automatic	-10.7873
▁parent	-10.7874
▁silent	-10.7878
▁rat	-10.7881
▁indo	-10.7886
water	-10.7892
cal	-10.7895
end	-10.7895
▁vessels	-10.7897
▁compound	-10.79
▁ages	-10.7902
▁ask	-10.7902
▁shooting	-10.7906
▁gauge	-10.791
▁restricted	-10.7919
▁cloud	-10.792
▁herbert	-10.792
lock	-10.7921
▁egg	-10.7922
▁directors	-10.7936
ash	-10.7941
▁unity	-10.7946
uity	-10.7948
▁stood	-10.7949
▁airways	-10.7949
sburg	-10.7952
ably	-10.7955
▁wounded	-10.7957
▁boom	-10.7964
oli	-10.7967
▁clothing	-10.797
▁comprehensive	-10.797
ria	-10.7975
▁charlotte	-10.7981
▁ky	-10.7982
mas	-10.7985
▁walker	-10.7986
vin	-10.7987
gar	-10.7989
▁reader	-10.799
▁dia	-10.799
▁ferdinand	-10.7991
▁mat	-10.7992
▁cargo	-10.8006
▁horror	-10.8009
▁naturally	-10.8012
▁franchise	-10.8012
▁suitable	-10.8014
▁dealing	-10.8016
▁rob	-10.8019
▁tip	-10.802
▁attempting	-10.8024
▁whilst	-10.8024
▁melbourne	-10.8031
▁appearing	-10.8034
▁warner	-10.8034
▁molecular	-10.8035
▁guardian	-10.8045
▁separation	-10.8045
▁buffalo	-10.8045
▁westminster	-10.805
▁seeking	-10.8052
▁valid	-10.8053
▁depends	-10.8061
▁comedian	-10.8063
aki	-10.8067
▁homepage	-10.8068
▁thick	-10.8073
▁edinburgh	-10.8078
▁kar	-10.8083
▁lasted	-10.8084
wan	-10.8084
▁es	-10.8088
▁structural	-10.8089
▁plural	-10.809
▁select	-10.8095
▁xi	-10.8098
ins	-10.8098
▁wake	-10.8101
▁hub	-10.8102
▁metres	-10.8102
▁damaged	-10.8103
▁besides	-10.8103
▁kevin	-10.8106
▁producers	-10.8107
time	-10.8111
▁flights	-10.8118
▁flower	-10.8119
▁indicates	-10.8121
▁logical	-10.8122
▁shopping	-10.8126
ser	-10.8128
od	-10.8135
▁tai	-10.8138
una	-10.8139
▁chile	-10.814
▁taxes	-10.8143
ero	-10.8143
▁photographed	-10.8147
▁velocity	-10.8147
▁horses	-10.8152
▁radar	-10.8153
▁rocks	-10.8155
▁brazilian	-10.8156
▁alex	-10.8157
ph	-10.8157
▁substance	-10.8162
▁sri	-10.8163
▁denied	-10.8165
▁retirement	-10.8166
▁heir	-10.8166
▁trademark	-10.817
▁advice	-10.8173
▁marvel	-10.8173
▁critic	-10.8175
▁therapy	-10.8175
▁raf	-10.8176
▁slavery	-10.8177
▁terry	-10.8178
ene	-10.8183
ill	-10.8188
▁pound	-10.8198
▁seeing	-10.8204
▁pu	-10.8206
ick	-10.8212
▁client	-10.8214
peg	-10.8215
▁stored	-10.8217
uered	-10.822
▁inspiration	-10.822
▁tanks	-10.8223
▁friendly	-10.8231
▁indicated	-10.8231
▁trinity	-10.8232
oni	-10.8233
▁berkeley	-10.8239
▁smoke	-10.8239
▁slaves	-10.824
▁theoretical	-10.8241
ira	-10.8242
▁ownership	-10.8243
▁editions	-10.8244
▁harold	-10.8246
▁revolt	-10.8247
▁oliver	-10.8249
▁beta	-10.8252
▁shin	-10.8253
urisdiction	-10.8255
board	-10.8261
▁natives	-10.8261
▁fill	-10.8262
fe	-10.8264
▁offering	-10.8266
▁kinds	-10.8272
du	-10.8273
▁sep	-10.8275
▁poll	-10.8276
▁instructions	-10.8288
▁summit	-10.8297
▁taste	-10.8303
▁gear	-10.8306
▁dun	-10.8313
▁madison	-10.832
▁landscape	-10.8327
work	-10.8333
ification	-10.8335
▁consumption	-10.8339
▁immigrants	-10.8341
▁hay	-10.8341
ther	-10.8345
▁collins	-10.835
▁legs	-10.8351
▁neighborhood	-10.8352
▁cho	-10.8354
▁fate	-10.8356
▁liberation	-10.8358
uate	-10.8358
▁kelly	-10.8358
▁danger	-10.8362
▁exclusively	-10.8362
▁cheese	-10.8369
▁arnold	-10.8372
▁deck	-10.8375
▁exposed	-10.8376
▁lifetime	-10.8377
▁unfortunately	-10.8381
▁burn	-10.8381
ice	-10.8383
ston	-10.8384
▁milan	-10.8386
▁inventor	-10.8386
sson	-10.8387
▁villa	-10.8388
▁segment	-10.839
▁leon	-10.8391
▁experiences	-10.8393
▁constantinople	-10.8395
▁affect	-10.8398
▁arrest	-10.8403
▁hear	-10.8404
▁extinct	-10.8407
▁publisher	-10.8408
over	-10.8409
▁descendants	-10.8411
▁potter	-10.8411
▁shah	-10.8415
▁beam	-10.842
▁brigade	-10.8424
eh	-10.8425
dr	-10.8427
▁seed	-10.8427
uis	-10.8429
▁losses	-10.8429
▁math	-10.843
▁anthem	-10.8432
▁involvement	-10.8433
▁lebanon	-10.844
mp	-10.8446
pin	-10.8448
▁shield	-10.845
▁nbc	-10.8455
▁tomb	-10.8456
bert	-10.8457
▁discussed	-10.8458
▁prussia	-10.8459
▁ferry	-10.8462
▁blocks	-10.8462
▁nato	-10.8462
lis	-10.8465
▁idaho	-10.8466
▁hugh	-10.847
▁rotation	-10.8474
▁lb	-10.8475
▁supplies	-10.8481
▁varies	-10.8482
▁magnitude	-10.8485
▁grass	-10.8487
▁sit	-10.8492
▁gdp	-10.8495
▁merchant	-10.8503
▁feeling	-10.8508
▁properly	-10.8508
▁advertising	-10.8511
unk	-10.8512
ika	-10.8522
▁stones	-10.8524
▁grain	-10.8526
▁gov	-10.8529
▁ports	-10.8532
▁boats	-10.8537
▁printing	-10.8538
ami	-10.8538
ros	-10.854
▁boxing	-10.8541
ado	-10.8541
▁arrangement	-10.8546
▁tele	-10.8546
▁globe	-10.8547
▁touch	-10.8548
▁afghan	-10.8557
▁sho	-10.8557
▁compounds	-10.8559
▁anniversary	-10.8561
▁farmers	-10.8562
yo	-10.8562
▁bishops	-10.8563
▁smooth	-10.8569
tor	-10.857
▁resident	-10.8572
▁championships	-10.8574
▁homer	-10.8574
ec	-10.8575
▁presidency	-10.8584
▁attorney	-10.8588
▁invention	-10.8592
mat	-10.8592
▁dos	-10.8597
▁dollars	-10.8598
oth	-10.8598
▁gilbert	-10.8599
▁diverse	-10.8602
cat	-10.8602
▁infant	-10.8603
▁harm	-10.8603
ington	-10.8604
lam	-10.8605
▁trick	-10.8612
▁compete	-10.8613
▁explorer	-10.8613
▁eating	-10.8615
▁distinguish	-10.8615
▁electronics	-10.8618
ff	-10.8622
▁kai	-10.8622
▁reagan	-10.8623
▁htm	-10.8624
▁regardless	-10.863
▁diplomatic	-10.8632
▁reducing	-10.8641
▁rugby	-10.8641
▁kin	-10.8644
▁ralph	-10.8649
▁pointed	-10.8654
▁threatened	-10.8658
▁protest	-10.866
▁considerably	-10.8661
▁defend	-10.8663
▁heroes	-10.8666
elle	-10.8668
ky	-10.8672
rus	-10.8675
ude	-10.8676
▁yes	-10.8677
▁rational	-10.868
▁cro	-10.8681
▁thailand	-10.8688
▁florence	-10.8691
nik	-10.8691
▁tie	-10.8693
▁virus	-10.8695
▁bei	-10.8699
mb	-10.8699
▁ethics	-10.8704
▁songwriter	-10.8704
lay	-10.8705
▁readers	-10.8705
▁lab	-10.8706
▁funding	-10.8707
udges	-10.8708
▁entering	-10.871
hr	-10.8711
▁shares	-10.8711
onathan	-10.8714
▁sight	-10.872
▁variants	-10.8721
▁highlighting	-10.8722
▁gregory	-10.8735
▁arena	-10.8737
▁installed	-10.8737
▁whatever	-10.8739
▁eg	-10.8742
▁implemented	-10.8744
▁employment	-10.8745
▁negotiations	-10.8747
dal	-10.875
▁germanic	-10.8755
▁discography	-10.8757
kan	-10.8758
▁monte	-10.8759
▁metric	-10.8769
▁def	-10.877
▁neil	-10.877
▁camps	-10.8772
▁tel	-10.8775
▁overseas	-10.8776
uisition	-10.8776
▁solutions	-10.8777
▁billboard	-10.8779
oid	-10.8782
mel	-10.8783
▁drummer	-10.8788
▁champions	-10.8789
▁carlos	-10.879
▁trouble	-10.879
▁toll	-10.879
▁handle	-10.8792
▁commentary	-10.8792
ric	-10.8794
▁bid	-10.8794
ulian	-10.8802
▁lan	-10.8803
▁ride	-10.8806
▁governors	-10.8806
▁sure	-10.8816
▁geographic	-10.8819
ock	-10.8823
eo	-10.8823
▁adaptation	-10.8826
▁manufacturer	-10.8837
▁territorial	-10.884
rc	-10.884
▁tin	-10.8844
▁bra	-10.8846
ru	-10.8848
▁shorter	-10.8849
▁masters	-10.8852
ds	-10.8854
▁feed	-10.8858
▁dies	-10.8858
▁lp	-10.886
▁reviews	-10.8864
▁zoo	-10.8867
▁barbara	-10.8869
▁cuisine	-10.8874
▁maintenance	-10.8874
▁surgery	-10.8874
ball	-10.8881
▁pun	-10.8883
gu	-10.8885
▁summary	-10.8886
▁sheet	-10.8886
▁grammy	-10.8887
▁hosts	-10.8887
ase	-10.8893
▁democrats	-10.8895
▁butler	-10.8898
▁muscle	-10.8899
ip	-10.8899
▁facing	-10.8905
▁pit	-10.8906
▁wedding	-10.8906
▁reportedly	-10.8911
▁google	-10.8913
ese	-10.8915
▁catherine	-10.8921
▁promotion	-10.8923
▁autonomous	-10.8929
▁bridges	-10.8932
ela	-10.8933
▁molecules	-10.8934
▁processor	-10.8935
▁muhammad	-10.8937
▁designer	-10.894
▁researchers	-10.8948
▁moderate	-10.8952
uations	-10.8954
▁craft	-10.8954
▁notice	-10.8955
▁hearing	-10.8957
▁cutting	-10.8962
▁fusion	-10.8968
▁hurricane	-10.8968
aya	-10.8969
▁phenomena	-10.897
ware	-10.8972
▁messages	-10.8973
▁proposal	-10.8976
can	-10.8976
▁lift	-10.8977
▁genesis	-10.8978
▁henri	-10.8978
▁inches	-10.8978
▁saxon	-10.8981
▁plains	-10.8983
▁coverage	-10.8983
▁richmond	-10.8985
▁interpreted	-10.8986
ret	-10.8986
▁spoke	-10.8986
▁neighboring	-10.8992
▁dress	-10.8994
▁parker	-10.8995
▁remember	-10.9004
▁aids	-10.9005
▁twentieth	-10.9012
▁automobile	-10.9016
uipped	-10.9017
▁millennium	-10.902
▁wealthy	-10.9027
▁farming	-10.9035
ason	-10.9042
▁tiger	-10.9046
▁woods	-10.9051
lar	-10.9057
gs	-10.9059
▁ru	-10.9059
▁gap	-10.9062
▁turner	-10.9064
▁peru	-10.9067
▁breed	-10.9072
▁intelligent	-10.9076
▁cooper	-10.9077
▁bones	-10.9082
▁extend	-10.9086
▁maritime	-10.9088
▁illness	-10.9089
▁stan	-10.9091
▁mhz	-10.9092
ain	-10.9094
▁planes	-10.91
▁raymond	-10.91
▁cf	-10.9102
▁brunswick	-10.9104
▁cattle	-10.9104
▁cu	-10.9106
▁nose	-10.9108
▁scandal	-10.9114
▁ian	-10.9122
▁occasion	-10.9124
▁marc	-10.9126
▁load	-10.9129
▁occasions	-10.9131
▁coffee	-10.9132
▁humanity	-10.9133
▁span	-10.9134
▁wooden	-10.9137
rie	-10.9137
▁revised	-10.9137
▁pol	-10.9138
▁consistent	-10.9139
▁paintings	-10.9143
ele	-10.9144
aro	-10.9147
▁kilometers	-10.9148
▁marshal	-10.9148
ei	-10.9148
▁luke	-10.9151
fin	-10.9152
▁corruption	-10.9153
▁kirk	-10.9158
▁ronald	-10.9161
▁variables	-10.9161
osa	-10.9163
▁rough	-10.9163
▁restrictions	-10.9164
▁framework	-10.9166
art	-10.9167
▁atoms	-10.9168
bus	-10.9169
▁blow	-10.9171
▁bristol	-10.9173
▁foster	-10.9175
▁indonesia	-10.9183
▁rhine	-10.9184
▁birthday	-10.9185
▁lin	-10.9186
▁restaurants	-10.9187
ory	-10.9188
▁observations	-10.9189
▁essays	-10.9192
▁tam	-10.9196
▁palestine	-10.9197
▁infrastructure	-10.9197
▁ultra	-10.9202
▁catholics	-10.9205
▁collective	-10.921
▁monster	-10.9212
hill	-10.9215
▁varying	-10.9216
pt	-10.9216
▁eve	-10.9218
▁roof	-10.922
▁augustus	-10.9221
▁describing	-10.9226
▁skill	-10.9227
▁bearing	-10.923
▁vessel	-10.9235
ulius	-10.9242
▁laureate	-10.9242
▁pittsburgh	-10.9242
▁isolated	-10.9247
▁looked	-10.9253
▁elevation	-10.9256
lu	-10.9258
▁construct	-10.9262
▁illustrated	-10.9268
del	-10.9274
▁alt	-10.9278
▁aware	-10.9285
▁angels	-10.9285
▁laser	-10.9288
▁cricket	-10.9288
▁wildlife	-10.9291
▁mall	-10.9292
▁involve	-10.9293
▁insurance	-10.9299
▁thanks	-10.9305
▁kid	-10.9307
▁curve	-10.9307
▁prefecture	-10.9311
burn	-10.9311
▁inflation	-10.9315
▁simultaneously	-10.9317
▁concrete	-10.9323
▁helen	-10.9327
▁murdered	-10.9332
ico	-10.9336
▁perry	-10.9337
▁disputed	-10.9338
▁gross	-10.9339
ien	-10.934
▁remainder	-10.9342
▁ltd	-10.9343
▁pal	-10.9351
▁ranging	-10.9356
▁sultan	-10.936
▁push	-10.936
▁agencies	-10.936
ches	-10.9361
ban	-10.9361
▁mari	-10.9363
uff	-10.9363
▁elite	-10.9365
▁burns	-10.9366
▁voters	-10.9366
▁rabbi	-10.9367
▁funeral	-10.9369
▁ranges	-10.937
▁finger	-10.9373
▁nba	-10.9375
▁eggs	-10.9379
▁gothic	-10.9379
cc	-10.9386
gy	-10.9387
▁portland	-10.9388
▁bre	-10.9389
▁migration	-10.9389
ven	-10.9395
▁nominee	-10.9397
▁kw	-10.9397
▁burned	-10.9397
gr	-10.9404
▁pool	-10.9404
▁immigration	-10.9406
▁strings	-10.9408
▁retrieved	-10.9412
▁au	-10.9415
▁sad	-10.9416
▁cass	-10.9417
▁conclusion	-10.9417
▁intervention	-10.9418
▁forever	-10.9423
▁keyboard	-10.9425
▁birmingham	-10.9431
▁columbus	-10.9431
▁chicken	-10.9434
▁worn	-10.9435
▁fighters	-10.9436
▁violin	-10.9442
▁removal	-10.9447
▁ci	-10.945
▁diagram	-10.9455
▁cotton	-10.946
▁specified	-10.946
▁crowd	-10.9464
▁reflect	-10.9465
ueensland	-10.9465
itz	-10.9467
▁belong	-10.9467
▁rocky	-10.9468
tv	-10.9471
▁significance	-10.9472
▁gor	-10.9473
▁concluded	-10.9474
▁pseudo	-10.9475
▁mb	-10.9479
▁exclusive	-10.9487
▁presidents	-10.949
▁politically	-10.9498
▁walking	-10.95
▁latest	-10.95
▁newfoundland	-10.9506
▁flood	-10.9508
▁wyoming	-10.951
▁nationalist	-10.9512
▁wal	-10.9513
▁vowel	-10.9514
▁fallen	-10.9515
▁keys	-10.9518
▁gift	-10.952
▁graduated	-10.9523
▁wan	-10.9527
ave	-10.9528
▁wise	-10.953
▁surrender	-10.9533
▁compare	-10.9533
▁fewer	-10.9534
▁ukraine	-10.9535
▁specialized	-10.9535
▁drag	-10.9536
▁malaysia	-10.9536
▁array	-10.9536
▁alexandria	-10.9538
▁fortune	-10.9538
▁rick	-10.9544
▁tiny	-10.9548
▁vancouver	-10.9552
▁lawyer	-10.9559
▁dust	-10.957
▁kiss	-10.9575
▁fo	-10.9578
▁manufactured	-10.9578
ori	-10.9585
gon	-10.9586
▁physician	-10.959
▁grades	-10.9592
▁permitted	-10.9595
▁eddie	-10.9599
▁ear	-10.9599
▁collections	-10.96
▁spy	-10.9602
uoted	-10.9605
▁namespace	-10.9605
▁haven	-10.9606
▁transformation	-10.9607
▁demonstrated	-10.9607
▁widow	-10.9607
uo	-10.9609
▁dated	-10.961
▁unofficial	-10.9614
▁canton	-10.9614
▁planets	-10.9615
▁replacing	-10.9615
▁outstanding	-10.9619
▁trials	-10.9622
▁consist	-10.9623
▁import	-10.9625
▁continent	-10.9628
▁completion	-10.9628
▁tactics	-10.963
▁princeton	-10.9641
▁bet	-10.9642
oa	-10.966
dar	-10.9661
▁gil	-10.9664
▁intense	-10.9665
star	-10.9665
▁kra	-10.9666
ible	-10.9666
▁monroe	-10.9666
▁victorian	-10.967
▁terrorism	-10.9672
▁establishing	-10.9674
▁supports	-10.9676
▁cream	-10.9676
▁tongue	-10.9677
bridge	-10.9679
ars	-10.9681
▁residential	-10.9683
▁blade	-10.9687
▁ter	-10.9687
▁missiles	-10.9689
▁strictly	-10.969
▁wrestling	-10.9691
▁greeks	-10.9696
▁mas	-10.9696
▁attitude	-10.9697
▁wider	-10.9698
▁trend	-10.9703
▁mt	-10.9707
▁wait	-10.9708
▁trace	-10.971
▁bars	-10.971
list	-10.9719
▁nomination	-10.9727
▁ties	-10.9727
▁varieties	-10.973
▁res	-10.9733
▁singular	-10.9733
shi	-10.9734
▁remembered	-10.9737
iya	-10.9743
▁shuttle	-10.9743
tr	-10.9744
▁restaurant	-10.9744
▁interaction	-10.9746
stein	-10.9747
ema	-10.9749
▁dynamic	-10.9751
▁cooperation	-10.9752
▁ois	-10.9753
nis	-10.9754
▁contrary	-10.9756
ces	-10.9757
▁warning	-10.9757
▁filmed	-10.9757
▁highways	-10.976
▁franz	-10.9761
▁frontier	-10.9762
▁sang	-10.9762
▁triangle	-10.9762
▁edmund	-10.9764
▁saved	-10.9767
zy	-10.9768
▁distant	-10.9768
▁editing	-10.9771
cher	-10.9771
▁mere	-10.9774
▁purple	-10.9777
▁bah	-10.9777
▁photographs	-10.9781
▁enormous	-10.9793
▁kor	-10.9793
▁attribution	-10.9794
ng	-10.9796
▁revenue	-10.9797
▁serbia	-10.9797
▁proclaimed	-10.9797
eck	-10.9797
▁giants	-10.9797
uda	-10.9804
▁scored	-10.981
▁riding	-10.9812
▁manhattan	-10.9816
▁meets	-10.9817
▁sisters	-10.9818
▁monastery	-10.982
▁forty	-10.9822
▁productions	-10.9825
▁prisoner	-10.9833
▁departure	-10.9833
sha	-10.9836
▁din	-10.9836
▁lloyd	-10.9837
▁translations	-10.9839
▁eleven	-10.9842
▁rifle	-10.9845
▁recovered	-10.9853
▁altitude	-10.9854
▁invited	-10.9856
▁participated	-10.9859
▁thereby	-10.9859
▁armstrong	-10.9863
▁ritual	-10.9867
▁hull	-10.9868
▁reactions	-10.9873
▁powell	-10.9873
▁gabriel	-10.9875
king	-10.9875
▁cruise	-10.9875
▁tang	-10.9877
▁reconstruction	-10.9881
ska	-10.9885
▁measurement	-10.9885
chen	-10.9886
▁fin	-10.9886
▁rhythm	-10.9889
▁hood	-10.9889
esse	-10.9892
▁norse	-10.9893
▁operators	-10.9905
▁bases	-10.9906
▁carol	-10.9909
▁svg	-10.9912
▁attractions	-10.9915
▁exploration	-10.992
▁happen	-10.9923
nia	-10.9924
▁phi	-10.9926
▁displayed	-10.9927
▁tied	-10.9932
▁ec	-10.9934
▁bce	-10.9934
▁efficiency	-10.9934
▁hammer	-10.9935
▁cuban	-10.9936
▁sphere	-10.9937
▁ix	-10.9939
▁isle	-10.9941
▁teachers	-10.9941
▁hydro	-10.9942
▁franco	-10.9944
▁magazines	-10.9945
▁vincent	-10.995
▁scots	-10.9955
▁friendship	-10.996
▁stalin	-10.9962
▁portions	-10.9965
▁tap	-10.9965
▁iranian	-10.9965
▁shut	-10.9973
kov	-10.9973
▁mus	-10.9975
▁settlements	-10.9976
▁wallace	-10.9978
ole	-10.9978
▁desired	-10.9979
▁conductor	-10.998
▁mun	-10.9982
▁disorders	-10.9982
▁peer	-10.9982
▁landed	-10.9984
▁mines	-10.9987
▁recognize	-10.9991
▁thereafter	-10.9994
▁steven	-10.9998
▁finish	-10.9998
tion	-11.0002
pan	-11.0003
▁paint	-11.0005
▁entity	-11.0007
enberg	-11.001
▁darwin	-11.0011
▁recommended	-11.0012
▁tons	-11.0016
▁lou	-11.002
▁proven	-11.002
▁madrid	-11.0021
▁conspiracy	-11.0025
▁fifty	-11.0025
und	-11.0026
▁difficulties	-11.0033
▁gamma	-11.0033
▁grid	-11.0034
▁venice	-11.0034
▁airports	-11.0034
▁competitive	-11.0037
▁hired	-11.0042
▁observation	-11.0052
▁governing	-11.0058
▁truly	-11.0063
aria	-11.0066
▁approaches	-11.0068
▁eli	-11.0068
▁vital	-11.0073
▁cop	-11.0073
▁definitions	-11.0073
▁swing	-11.0074
▁dawn	-11.0074
▁cord	-11.0074
▁suburb	-11.0074
▁compression	-11.0074
▁activist	-11.0074
▁boss	-11.0074
▁stuart	-11.0079
▁ruth	-11.008
▁bb	-11.0082
▁ambassador	-11.0083
ito	-11.0084
▁proto	-11.0084
▁aimed	-11.0089
▁tech	-11.009
cus	-11.0095
▁lit	-11.0098
▁tends	-11.01
▁contribution	-11.01
ias	-11.0102
▁differ	-11.0103
▁courses	-11.0106
ral	-11.0108
▁loose	-11.011
▁estimates	-11.0112
uries	-11.0116
▁macro	-11.0123
dic	-11.0123
▁nc	-11.0123
▁om	-11.0124
aka	-11.0125
▁creatures	-11.0129
▁marry	-11.0129
▁millions	-11.0129
▁liverpool	-11.0131
▁saturn	-11.0131
uf	-11.0135
nan	-11.0139
▁congo	-11.0142
yr	-11.0145
▁archives	-11.0146
▁decay	-11.0152
▁bread	-11.0156
▁relevant	-11.0158
▁reflected	-11.0165
ves	-11.0167
▁yale	-11.0168
▁soap	-11.017
▁meetings	-11.017
aire	-11.0171
▁rogers	-11.0171
▁allegedly	-11.0171
esh	-11.0175
▁sheep	-11.0176
▁wonder	-11.0178
▁pairs	-11.0184
lum	-11.0187
ides	-11.0188
▁topic	-11.019
▁amsterdam	-11.0194
▁patrol	-11.0194
▁intel	-11.0195
▁drinking	-11.0197
▁waiting	-11.0198
▁abilities	-11.0198
▁explosion	-11.02
▁papal	-11.0201
▁brooklyn	-11.0203
use	-11.0204
▁receives	-11.0204
▁bacteria	-11.0209
aceae	-11.021
▁prussian	-11.0211
▁algorithms	-11.0214
gel	-11.0215
▁escaped	-11.0216
▁customers	-11.0221
iang	-11.0221
▁infection	-11.0222
▁navigation	-11.0225
▁zi	-11.0225
▁bend	-11.0229
▁bl	-11.023
▁oral	-11.023
▁complexity	-11.0231
▁carriers	-11.0231
▁saga	-11.0234
▁batman	-11.0238
▁strikes	-11.0239
▁chat	-11.0241
▁commanded	-11.0242
adi	-11.0243
▁analog	-11.0245
uz	-11.0249
▁targets	-11.0255
bu	-11.0261
ander	-11.0261
aud	-11.0265
▁ps	-11.0272
low	-11.0272
▁destination	-11.0272
▁sensitive	-11.0275
elli	-11.0277
▁nest	-11.0278
yu	-11.0279
▁retain	-11.0282
▁teach	-11.0282
▁pitt	-11.0302
uantity	-11.0302
▁unlikely	-11.0302
▁underlying	-11.0307
▁divorce	-11.0308
▁penn	-11.0309
▁bach	-11.0312
▁stronger	-11.0312
ute	-11.0312
▁perception	-11.0314
▁serbian	-11.0314
▁approval	-11.0315
▁vacuum	-11.0315
▁panel	-11.0317
▁parody	-11.032
▁tissue	-11.0322
▁ahead	-11.0325
▁faces	-11.0328
▁hor	-11.0329
▁remarkable	-11.0329
▁terror	-11.033
itis	-11.0331
▁exit	-11.0331
▁atom	-11.0332
▁smart	-11.0333
tal	-11.0334
▁demands	-11.0334
▁assume	-11.0334
▁solomon	-11.0334
▁recovery	-11.0335
▁evans	-11.0335
▁kon	-11.0335
uotes	-11.0336
▁astronomy	-11.0337
▁stayed	-11.034
▁nerve	-11.034
▁repeatedly	-11.0341
▁punch	-11.0349
▁matches	-11.035
▁yorkshire	-11.035
▁venus	-11.0354
▁enforcement	-11.0357
eri	-11.0357
▁legion	-11.0365
▁emotional	-11.0367
▁geneva	-11.0371
▁generations	-11.0372
▁voiced	-11.0373
▁leap	-11.0374
▁luis	-11.0377
▁baptist	-11.0379
▁partement	-11.0383
▁saudi	-11.0384
▁surprise	-11.0386
rat	-11.0387
▁customs	-11.0391
▁companion	-11.0401
ls	-11.0401
▁hp	-11.0402
mm	-11.0403
▁complicated	-11.0403
▁mason	-11.0407
▁mitchell	-11.0407
▁extensively	-11.0409
▁revenge	-11.0411
▁supposedly	-11.0411
ras	-11.0414
▁adults	-11.0414
▁confidence	-11.0416
▁dennis	-11.0416
▁aside	-11.0418
▁vin	-11.0424
ali	-11.0425
▁kir	-11.0431
ym	-11.0431
▁synthesis	-11.0434
▁postal	-11.0434
bs	-11.0436
ast	-11.0437
▁shops	-11.0438
▁sharing	-11.0438
▁glasgow	-11.0438
kar	-11.0441
▁comments	-11.0448
▁partnership	-11.0448
▁registered	-11.045
ids	-11.045
▁seriously	-11.0451
▁robot	-11.0455
▁decide	-11.0459
▁pride	-11.0461
lic	-11.0462
▁voyage	-11.0467
▁cos	-11.0469
▁striking	-11.0471
awa	-11.0475
uiet	-11.0475
▁treat	-11.0477
▁bold	-11.0479
▁controls	-11.0484
▁sarah	-11.0485
▁pollution	-11.0485
▁solve	-11.0485
▁wet	-11.0487
▁rad	-11.0488
▁survival	-11.0489
▁stanford	-11.049
var	-11.0494
▁integration	-11.0494
▁mineral	-11.0499
▁terminology	-11.0503
▁talking	-11.0505
▁electrons	-11.0506
▁leonard	-11.0508
▁dancing	-11.0509
▁binding	-11.0509
▁patriarch	-11.0512
▁participation	-11.0517
▁cluster	-11.0521
▁designation	-11.0525
▁intermediate	-11.0526
▁cpu	-11.0528
▁mutual	-11.0534
▁marcus	-11.0535
▁delay	-11.0541
▁teachings	-11.0542
▁associate	-11.0546
▁discipline	-11.0548
▁abroad	-11.0554
med	-11.0555
▁dialogue	-11.0555
▁mart	-11.0556
▁parade	-11.0562
▁maurice	-11.0563
▁generate	-11.0567
▁raid	-11.0567
▁linguistic	-11.057
oka	-11.0576
▁studying	-11.0579
ward	-11.058
▁ibn	-11.0585
▁recipient	-11.0587
▁unsuccessful	-11.059
▁precise	-11.0595
▁developments	-11.0595
▁stern	-11.0595
▁sierra	-11.0596
▁zip	-11.0599
▁lodge	-11.0601
▁lac	-11.0604
▁naming	-11.0604
nell	-11.0609
▁transform	-11.0611
▁partners	-11.0614
▁wy	-11.0614
▁ted	-11.0615
▁slang	-11.0618
mark	-11.0622
▁stability	-11.0625
▁explicitly	-11.0633
onia	-11.0633
▁clinical	-11.0635
▁guilty	-11.0636
▁friday	-11.0638
▁abortion	-11.0638
udgment	-11.0647
ants	-11.0651
▁ongoing	-11.0652
▁participants	-11.0652
▁reaches	-11.0652
▁pac	-11.0656
▁conflicts	-11.0659
▁unified	-11.0659
▁constantine	-11.0659
▁constantly	-11.0661
▁dreams	-11.0663
▁proteins	-11.0667
▁differential	-11.0668
▁abolished	-11.067
▁ok	-11.0671
▁athletic	-11.0671
iro	-11.0673
▁bavaria	-11.0677
▁operational	-11.0678
▁varied	-11.0679
▁demon	-11.0682
ante	-11.0684
▁cer	-11.0684
▁preserve	-11.0694
▁flags	-11.0694
▁locally	-11.0694
iel	-11.0695
ys	-11.0695
▁automatically	-11.0695
▁centered	-11.0698
▁generic	-11.07
▁chase	-11.07
▁convinced	-11.0703
▁atari	-11.0704
▁errors	-11.0707
▁militia	-11.0708
▁sail	-11.0708
▁vietnamese	-11.0709
▁shu	-11.0713
▁luc	-11.0716
▁wheat	-11.0716
▁legends	-11.0721
▁writes	-11.0721
▁pok	-11.0721
▁bulgaria	-11.0721
▁albania	-11.0722
▁horizontal	-11.0722
▁geo	-11.0722
▁primitive	-11.0722
zen	-11.0723
ising	-11.0723
▁technically	-11.0726
▁autobiography	-11.0727
▁elect	-11.0728
▁marx	-11.0729
ll	-11.073
▁hms	-11.0734
▁monarchs	-11.0739
dan	-11.0739
▁concentrated	-11.0741
▁sen	-11.0746
bach	-11.0746
heim	-11.0749
▁propaganda	-11.0751
sia	-11.0752
▁hol	-11.0752
▁anglican	-11.0753
▁nice	-11.0753
▁grandson	-11.0753
▁acoustic	-11.0765
ox	-11.0768
▁daughters	-11.0774
▁pur	-11.0778
▁sullivan	-11.0779
▁boxer	-11.0783
set	-11.0787
▁referendum	-11.0789
▁retreat	-11.079
▁int	-11.0793
▁dot	-11.0793
▁belonging	-11.0793
▁spend	-11.0794
form	-11.0801
▁confederation	-11.0803
▁lutheran	-11.0807
▁trilogy	-11.0808
▁compatible	-11.0813
▁bulk	-11.0815
▁convert	-11.0816
▁scotia	-11.0817
▁nixon	-11.0817
▁rebel	-11.0818
▁backed	-11.0824
▁baltic	-11.0825
▁samples	-11.0827
▁connect	-11.0828
▁gui	-11.0828
▁compilation	-11.0829
▁kingdoms	-11.0831
▁consent	-11.0833
▁ludwig	-11.0836
▁implies	-11.0837
▁speculation	-11.0837
▁considering	-11.0837
▁organisms	-11.0838
▁yugoslavia	-11.0842
▁demo	-11.0845
▁departments	-11.0851
oo	-11.0852
point	-11.0853
mu	-11.0854
van	-11.0855
lia	-11.0855
▁omega	-11.0856
▁wants	-11.0856
fish	-11.0857
▁truck	-11.0859
▁speeds	-11.0859
▁warrior	-11.0863
▁lap	-11.0863
▁campaigns	-11.0864
▁autumn	-11.0865
▁publishers	-11.0869
tum	-11.087
▁pedro	-11.0871
▁orientation	-11.0881
▁governed	-11.0886
▁ros	-11.0889
▁thermal	-11.0892
▁spending	-11.0892
▁presentation	-11.0897
▁identification	-11.0899
▁realm	-11.09
▁elaborate	-11.0901
▁bonds	-11.0902
▁walt	-11.0903
▁killer	-11.0903
▁connecting	-11.0906
▁improvement	-11.0908
iva	-11.0908
▁susan	-11.0909
uro	-11.0912
▁ul	-11.0916
▁prefer	-11.0921
▁lights	-11.0923
▁glory	-11.0923
▁package	-11.0924
▁ernest	-11.0928
▁manuscript	-11.0931
osis	-11.0931
▁battery	-11.0937
▁edit	-11.0937
▁innocent	-11.0937
▁priests	-11.0937
▁kr	-11.0938
▁kids	-11.0938
▁smallest	-11.0939
▁statesman	-11.0942
▁circular	-11.0942
▁theological	-11.0944
nus	-11.0947
▁sacrifice	-11.0948
eng	-11.096
▁bitter	-11.0961
▁stamp	-11.0963
▁merger	-11.0969
▁patron	-11.097
▁armor	-11.097
▁mur	-11.0971
▁expand	-11.0972
▁kh	-11.0972
▁creates	-11.0973
▁circa	-11.0975
▁tries	-11.0976
▁bun	-11.0976
▁firing	-11.0978
ome	-11.098
▁cannon	-11.0981
▁av	-11.0981
▁bobby	-11.0988
▁mammals	-11.0988
ious	-11.099
▁sketch	-11.0991
▁cent	-11.0993
▁holocaust	-11.0995
▁dimensions	-11.0996
▁rubber	-11.0996
ped	-11.0996
▁annually	-11.1
▁arrow	-11.1
▁guards	-11.1002
▁exceptions	-11.1002
▁opinions	-11.1005
▁appointment	-11.1013
▁rounds	-11.1014
▁drivers	-11.1014
▁consensus	-11.1015
▁archaeological	-11.1025
▁exhibition	-11.1025
ao	-11.1025
▁circles	-11.1026
▁schedule	-11.1027
▁retail	-11.103
▁saxony	-11.1032
oz	-11.1033
▁burial	-11.1035
▁towers	-11.1036
▁ry	-11.1036
▁bug	-11.1039
▁ye	-11.104
▁signature	-11.1043
▁extends	-11.1048
▁hide	-11.1048
▁vegas	-11.105
mes	-11.1057
▁bore	-11.106
▁examination	-11.1063
hal	-11.1063
▁slavic	-11.1065
▁moreover	-11.1066
▁milton	-11.1068
▁ade	-11.107
▁commissioner	-11.1071
▁bachelor	-11.1073
▁canyon	-11.1076
▁alter	-11.1078
upiter	-11.1078
▁nineteenth	-11.1078
▁arabia	-11.1081
▁mask	-11.1084
▁lens	-11.1086
▁talent	-11.1093
▁cats	-11.1093
▁sung	-11.1096
▁hybrid	-11.1103
▁dal	-11.1105
▁tendency	-11.1108
▁acceptance	-11.1108
▁crow	-11.1113
▁maintaining	-11.1115
pro	-11.1117
▁congressional	-11.1118
▁putting	-11.1121
log	-11.1122
▁regulations	-11.113
▁ze	-11.1133
▁sovereignty	-11.1133
▁eternal	-11.1137
▁cre	-11.1141
▁intention	-11.1142
▁delivery	-11.1143
▁vel	-11.1147
▁mysterious	-11.1147
▁crossed	-11.1147
▁attraction	-11.1153
▁fifteen	-11.1156
▁tolkien	-11.1157
▁beings	-11.1158
▁nobility	-11.1158
▁springfield	-11.116
▁chaos	-11.1161
ct	-11.1163
▁derives	-11.1165
▁grandfather	-11.1167
▁carries	-11.1167
▁kat	-11.1169
iki	-11.117
▁uns	-11.117
ueens	-11.1172
▁export	-11.1174
▁geographical	-11.1175
▁exports	-11.1176
▁applies	-11.1177
ila	-11.1182
▁churchill	-11.1187
▁partition	-11.1189
▁relating	-11.1191
▁mach	-11.1195
▁sicily	-11.1196
▁suspended	-11.1199
box	-11.12
▁suburbs	-11.1201
▁collaboration	-11.1202
▁carr	-11.1204
▁administered	-11.1205
▁accuracy	-11.1206
bin	-11.1207
ben	-11.1214
eur	-11.1215
▁termed	-11.1215
▁clement	-11.1221
▁raising	-11.1222
▁adoption	-11.1222
▁luther	-11.1224
▁willing	-11.1224
▁pleasure	-11.1226
▁hereby	-11.1226
▁denver	-11.1227
▁harsh	-11.123
▁renowned	-11.1232
ku	-11.1233
▁promised	-11.1233
▁subset	-11.124
▁undergraduate	-11.1241
▁scoring	-11.1241
▁moses	-11.1242
▁tasks	-11.1242
▁rooms	-11.1242
▁trio	-11.1247
▁cancelled	-11.1256
uma	-11.1257
▁detective	-11.1258
din	-11.1262
card	-11.1264
▁fed	-11.127
borg	-11.127
▁essex	-11.1271
▁keith	-11.1277
▁michel	-11.1279
▁acted	-11.1283
eus	-11.1283
▁inherited	-11.129
▁pont	-11.1292
aba	-11.1292
▁tab	-11.1293
▁tag	-11.1295
▁berg	-11.1296
▁options	-11.1297
kel	-11.1298
▁shipping	-11.1298
▁pilots	-11.13
▁demanded	-11.13
▁approximate	-11.1305
ello	-11.1307
▁proportion	-11.1308
▁coined	-11.1312
▁refugees	-11.1315
▁claude	-11.1316
▁crops	-11.1317
▁conception	-11.1318
▁beck	-11.1319
▁vatican	-11.1321
▁narrative	-11.1323
▁outbreak	-11.1323
▁convicted	-11.1328
▁likewise	-11.1328
▁noun	-11.1329
▁suddenly	-11.1331
▁sitting	-11.1332
▁imprisoned	-11.1332
▁yoshi	-11.1333
▁winds	-11.1334
▁railways	-11.1334
▁visiting	-11.1335
▁contents	-11.134
▁lip	-11.134
▁eng	-11.1344
▁welfare	-11.1346
▁cheap	-11.1346
▁integer	-11.1348
▁foods	-11.1349
▁independently	-11.135
aff	-11.1351
rate	-11.1353
▁stroke	-11.1356
▁celebration	-11.1358
▁sol	-11.1358
▁petroleum	-11.1361
▁lancaster	-11.1366
▁nephew	-11.1371
▁stamps	-11.1373
▁arose	-11.1373
▁adopt	-11.1374
▁ion	-11.1374
ore	-11.1376
▁fortress	-11.1377
▁arguably	-11.1381
▁uprising	-11.1381
▁easter	-11.1387
▁buck	-11.1389
▁recognised	-11.1389
bre	-11.1394
▁achievement	-11.1395
▁breeding	-11.1396
▁polar	-11.1397
▁seeds	-11.14
▁penalty	-11.1402
▁dome	-11.1402
▁somerset	-11.1402
▁dissolved	-11.1404
▁boroughs	-11.1407
▁interviews	-11.1408
▁emperors	-11.1408
nd	-11.141
▁coordinates	-11.1412
▁munich	-11.1412
▁scar	-11.1412
tha	-11.1413
▁divide	-11.1414
▁newer	-11.1414
▁zu	-11.1416
mis	-11.1419
▁hugo	-11.1424
▁ussr	-11.1424
▁gran	-11.1425
▁performers	-11.1426
▁ivan	-11.1426
▁slide	-11.1427
feld	-11.1428
▁bros	-11.143
▁pagan	-11.1433
▁bang	-11.1434
▁cur	-11.1437
▁legitimate	-11.1437
▁swimming	-11.1442
▁ark	-11.1444
▁silk	-11.1454
▁estimate	-11.1455
▁lightning	-11.1456
▁panama	-11.1459
▁carroll	-11.1463
▁teeth	-11.1464
▁rim	-11.1465
▁receiver	-11.1468
▁severely	-11.1476
▁mud	-11.1481
▁dying	-11.1481
▁nonetheless	-11.1483
▁closest	-11.1485
▁az	-11.1486
▁cyprus	-11.1488
▁maintains	-11.1491
▁aged	-11.1493
▁wisdom	-11.1493
▁pub	-11.1493
▁populated	-11.1494
▁wi	-11.1495
▁wang	-11.1496
▁prototype	-11.1496
▁eldest	-11.1498
ohan	-11.15
▁developers	-11.15
▁simpson	-11.1501
▁disputes	-11.1504
▁pull	-11.1505
▁fatal	-11.1505
▁counts	-11.1506
▁sending	-11.1506
▁worse	-11.1507
tri	-11.1512
▁conventions	-11.1514
▁rh	-11.1515
▁ethical	-11.1522
▁plateau	-11.1522
▁buddha	-11.1526
▁updated	-11.1534
▁ottawa	-11.1534
▁hawk	-11.1535
▁ker	-11.1539
▁bombs	-11.1539
▁ryan	-11.1543
lecommunications	-11.1543
▁bru	-11.1545
tl	-11.1545
▁hook	-11.1546
▁plasma	-11.1547
▁trigger	-11.1549
▁ceased	-11.155
▁gl	-11.1557
▁drives	-11.1559
▁crowned	-11.1561
bit	-11.1563
▁youngest	-11.1566
▁photography	-11.1567
itt	-11.1569
zu	-11.1572
met	-11.1575
▁superman	-11.1575
▁magical	-11.1577
dd	-11.1579
horn	-11.1579
▁doctors	-11.158
▁transmitted	-11.158
▁promise	-11.1582
▁pete	-11.1584
▁aw	-11.1584
▁invaded	-11.1585
▁canterbury	-11.1585
▁honey	-11.1585
▁cher	-11.1585
ming	-11.1586
▁advocate	-11.1587
▁layout	-11.1587
▁stack	-11.1587
▁mol	-11.159
▁deemed	-11.1592
uantities	-11.1595
atus	-11.1599
▁prophet	-11.1599
▁restore	-11.16
▁duchy	-11.1601
▁brick	-11.1602
▁meter	-11.1604
▁tables	-11.1605
▁symbolic	-11.1606
▁stra	-11.161
▁empress	-11.1611
▁hon	-11.1611
▁med	-11.1614
▁blake	-11.1614
▁anchor	-11.1615
▁accent	-11.1616
▁opposing	-11.1616
▁sel	-11.1619
eon	-11.162
bed	-11.162
▁filter	-11.162
▁ukrainian	-11.1621
▁retrospectively	-11.1622
▁loyal	-11.1625
▁travels	-11.1626
▁hughes	-11.1628
book	-11.1628
▁baldwin	-11.1632
▁stockholm	-11.1632
▁deeply	-11.1636
▁sw	-11.1637
▁stick	-11.1638
mond	-11.1639
▁exhibit	-11.1641
▁interactive	-11.1642
▁believes	-11.1644
▁colored	-11.1647
lat	-11.1651
▁engage	-11.1652
▁accessible	-11.1653
▁doors	-11.1653
▁scholarship	-11.1668
master	-11.1672
▁vowels	-11.1673
▁oz	-11.1675
▁knows	-11.1676
▁minimal	-11.1676
▁preparation	-11.1678
▁consecutive	-11.1678
▁kn	-11.168
▁explains	-11.1682
▁item	-11.1683
▁digit	-11.1684
▁scope	-11.1692
par	-11.1692
▁defunct	-11.1694
uencies	-11.1695
▁dubbed	-11.1699
▁blast	-11.17
▁improvements	-11.1701
mos	-11.1703
uirement	-11.1707
▁harmony	-11.1707
▁epi	-11.1708
▁adolf	-11.1708
▁assist	-11.1709
▁uploads	-11.171
▁explosive	-11.1714
▁suffer	-11.1716
aga	-11.172
anus	-11.1722
▁portal	-11.1722
▁einstein	-11.1726
▁pursue	-11.1729
▁forcing	-11.1731
▁snake	-11.1732
▁edu	-11.1743
▁dimension	-11.1744
▁wireless	-11.1747
▁witness	-11.1747
old	-11.175
els	-11.175
▁holes	-11.1751
▁regent	-11.1755
▁observer	-11.1755
▁handling	-11.1757
▁iceland	-11.1758
▁rendered	-11.1758
▁orbital	-11.176
▁colombia	-11.1761
▁photograph	-11.1764
▁witnesses	-11.1767
▁oakland	-11.177
▁crop	-11.1771
▁criteria	-11.1777
▁tobacco	-11.1783
▁configuration	-11.1783
▁suspected	-11.1784
▁runner	-11.1784
▁rt	-11.1785
▁wool	-11.1786
rv	-11.1786
▁chu	-11.1789
▁witch	-11.179
ign	-11.1791
alis	-11.1795
▁thor	-11.1796
ough	-11.1796
och	-11.1799
▁bol	-11.1801
▁sm	-11.1803
oi	-11.1811
▁luck	-11.1814
▁timber	-11.1814
▁kills	-11.1816
▁excess	-11.1819
▁sony	-11.1821
▁pushed	-11.1822
▁lover	-11.1824
▁reliable	-11.1825
▁oriental	-11.1827
▁wagner	-11.183
▁sized	-11.1831
▁mg	-11.1834
▁chorus	-11.1837
▁addressed	-11.1838
▁hate	-11.1838
▁terrain	-11.1839
▁occasional	-11.184
ified	-11.1841
▁tommy	-11.1847
▁evolutionary	-11.1847
▁inhabited	-11.1851
ern	-11.1851
▁casualties	-11.1851
▁clergy	-11.1854
▁lying	-11.1857
oh	-11.1857
▁telescope	-11.1857
lie	-11.1859
▁interval	-11.1859
▁theodore	-11.1861
▁hen	-11.1861
▁mtv	-11.1863
▁tourists	-11.1864
▁proportional	-11.1866
▁genes	-11.1868
uta	-11.1869
▁mag	-11.1871
str	-11.1871
▁flew	-11.1874
▁procedures	-11.1876
▁spite	-11.1876
▁ir	-11.188
ech	-11.1882
tron	-11.1887
▁kil	-11.1887
▁labels	-11.1888
▁veterans	-11.1888
▁directions	-11.1888
▁strait	-11.1889
▁pig	-11.189
▁monk	-11.1892
▁mate	-11.1896
▁diversity	-11.1899
▁deals	-11.1901
▁sara	-11.1904
▁legally	-11.1904
▁shaw	-11.1906
▁uncertain	-11.1909
▁paradise	-11.1912
▁dame	-11.1912
▁hth	-11.1919
sel	-11.192
▁gif	-11.1922
stad	-11.1922
▁ak	-11.1926
▁torah	-11.1927
▁prevented	-11.1927
▁purely	-11.1928
▁ranking	-11.1928
▁licensed	-11.1932
▁windsor	-11.1932
▁comment	-11.1934
ltilicensewithcc	-11.1936
▁landmark	-11.1938
▁layers	-11.1939
gia	-11.194
▁sponsored	-11.1941
▁numbered	-11.1945
ules	-11.1946
anda	-11.1953
▁sid	-11.1954
▁erected	-11.1958
tro	-11.1959
link	-11.196
▁pra	-11.1964
▁corners	-11.1964
▁pounds	-11.1969
▁predecessor	-11.197
ye	-11.197
ovi	-11.1973
pr	-11.1973
▁fail	-11.1976
▁ste	-11.1978
▁travelled	-11.1981
▁diesel	-11.1982
▁fever	-11.1984
▁capitol	-11.1984
▁cylinder	-11.1986
▁sandy	-11.1994
▁harvey	-11.1995
pur	-11.1997
▁credits	-11.1999
▁sessions	-11.2
dia	-11.2
▁monday	-11.2001
yan	-11.2001
▁realized	-11.2002
▁capitalism	-11.2005
▁circulation	-11.2006
▁lifestyle	-11.2011
▁merit	-11.2012
▁hang	-11.2015
▁monetary	-11.2016
▁lisa	-11.2017
▁transformed	-11.2023
▁edwards	-11.2023
▁macintosh	-11.2027
uests	-11.2028
▁regulation	-11.203
▁entities	-11.2038
▁algebraic	-11.2039
▁encounter	-11.2041
vers	-11.2044
▁nm	-11.2046
▁duration	-11.2052
▁imposed	-11.2052
▁attacking	-11.2055
ates	-11.2055
▁accomplished	-11.2059
ake	-11.206
▁potentially	-11.2067
▁senators	-11.2068
▁abbreviation	-11.2068
▁tension	-11.207
bel	-11.2076
▁watson	-11.2076
▁expert	-11.2084
path	-11.2085
▁extending	-11.2087
▁happens	-11.2088
▁nhl	-11.209
▁compromise	-11.209
▁mcc	-11.2091
▁unemployment	-11.2092
▁helping	-11.2097
uck	-11.2097
▁competing	-11.2097
▁minerals	-11.2098
▁marion	-11.2099
▁ace	-11.21
▁marsh	-11.21
▁bro	-11.2101
▁unions	-11.2101
▁edgar	-11.2102
ions	-11.2107
▁stein	-11.2114
▁das	-11.2116
dra	-11.2118
▁satan	-11.2122
▁warriors	-11.2122
▁bern	-11.2123
▁namely	-11.2124
▁thy	-11.2126
▁mei	-11.2126
▁rub	-11.2126
▁reich	-11.2127
▁dismissed	-11.2129
▁instant	-11.2132
uni	-11.2137
▁floating	-11.2137
▁sculpture	-11.214
▁picked	-11.2142
osh	-11.2146
▁holidays	-11.215
▁naples	-11.2152
des	-11.2153
ulia	-11.2158
fu	-11.2159
▁concerto	-11.2159
▁intent	-11.2159
▁repair	-11.2161
▁astronomical	-11.2168
▁chronic	-11.2169
▁nt	-11.2172
mal	-11.2173
▁rican	-11.2174
▁sailed	-11.2174
▁opens	-11.2175
▁arctic	-11.2178
▁hare	-11.218
▁rosa	-11.2181
▁holmes	-11.2186
▁marble	-11.2186
▁wil	-11.2193
▁insects	-11.2194
▁kick	-11.2194
▁troy	-11.2195
▁suburban	-11.2196
▁manufacture	-11.2198
▁stating	-11.2198
▁aerial	-11.2201
▁shoot	-11.2202
▁customer	-11.221
▁abu	-11.2211
▁telling	-11.2213
▁physically	-11.2216
▁butter	-11.2217
▁presumably	-11.2217
▁bomber	-11.2219
rm	-11.2219
▁editors	-11.222
▁occurring	-11.2224
▁nationalism	-11.2224
▁behalf	-11.2228
▁forbidden	-11.2228
▁vladimir	-11.2228
▁bis	-11.2229
▁genres	-11.223
▁travelling	-11.2233
▁anatomy	-11.2239
▁placing	-11.2239
▁beneath	-11.2239
▁personally	-11.224
▁persia	-11.2244
▁rebuilt	-11.2245
▁depend	-11.2253
view	-11.2253
olo	-11.2254
▁hypo	-11.2255
▁habit	-11.2255
▁pleasant	-11.2256
▁belongs	-11.2256
uote	-11.2258
▁reporting	-11.226
▁mast	-11.2262
▁tight	-11.2264
▁loved	-11.2265
▁cartoons	-11.2267
▁kernel	-11.2268
▁advocates	-11.2268
▁node	-11.2272
▁spencer	-11.2273
▁ruins	-11.2273
▁tat	-11.2275
▁lucas	-11.2277
▁circuits	-11.2284
▁fiber	-11.2286
▁anton	-11.2288
▁surname	-11.2288
oku	-11.229
▁worker	-11.229
▁arithmetic	-11.2294
▁kb	-11.2295
▁brass	-11.2295
pha	-11.2297
▁cao	-11.2297
ations	-11.2298
▁md	-11.2302
▁highland	-11.2303
▁eighth	-11.2308
▁sing	-11.231
▁rn	-11.231
▁commodore	-11.2311
▁hiv	-11.2311
▁warsaw	-11.2314
agh	-11.2315
▁responded	-11.2315
igan	-11.2318
▁chan	-11.232
▁monitor	-11.2321
▁fbi	-11.2322
▁settle	-11.2322
▁electro	-11.2323
▁feast	-11.2324
▁initiated	-11.2325
▁bills	-11.233
▁adrian	-11.233
▁discover	-11.2333
top	-11.2334
▁signing	-11.2339
▁olive	-11.2339
▁sr	-11.234
▁breaks	-11.2343
light	-11.2343
▁audiences	-11.2346
world	-11.2346
▁throw	-11.2353
▁voices	-11.2354
▁accounting	-11.2356
ble	-11.2356
▁predominantly	-11.2357
▁phrases	-11.236
▁architectural	-11.2361
▁formats	-11.2361
ple	-11.2364
▁pocket	-11.2364
▁bulgarian	-11.2364
▁stem	-11.2369
sey	-11.2371
▁preservation	-11.2372
▁acceptable	-11.2376
▁relativity	-11.2378
▁battalion	-11.2378
▁georg	-11.2378
▁managing	-11.2379
▁documented	-11.2384
▁colon	-11.2385
▁circus	-11.2391
▁gathering	-11.2392
▁bud	-11.2393
▁apartment	-11.2396
▁sentenced	-11.2396
▁croatian	-11.2402
▁tribal	-11.2403
▁defines	-11.2405
uka	-11.2407
▁scores	-11.2411
▁revelation	-11.2412
▁cuts	-11.2413
▁tamil	-11.2414
▁cab	-11.2414
▁owen	-11.2416
▁tours	-11.2417
▁defining	-11.2417
▁pianist	-11.2417
▁feelings	-11.2418
▁substances	-11.2422
▁pale	-11.2422
▁tested	-11.2422
▁prose	-11.2424
▁gaining	-11.2425
▁actively	-11.2426
py	-11.243
▁thai	-11.2432
▁atlas	-11.2436
▁closing	-11.2439
▁dylan	-11.2439
▁respective	-11.2441
imi	-11.2442
▁atmospheric	-11.245
▁expelled	-11.2451
▁thrown	-11.2456
▁zen	-11.2467
▁humor	-11.2469
abi	-11.2472
▁telegraph	-11.2472
▁nord	-11.2474
▁console	-11.2474
▁pad	-11.2476
▁hemisphere	-11.2478
▁defeats	-11.2482
mic	-11.2486
▁darkness	-11.2486
▁estates	-11.2488
▁kit	-11.249
▁chest	-11.2494
▁supplied	-11.2495
▁addresses	-11.2495
▁turks	-11.2498
▁sailing	-11.2499
▁bias	-11.2501
nce	-11.2503
▁princes	-11.2504
▁tune	-11.2506
▁aaron	-11.2508
▁communism	-11.2512
▁swift	-11.2512
eta	-11.2513
▁concerts	-11.2515
▁socialism	-11.2517
▁rape	-11.2519
▁whale	-11.2519
rid	-11.2519
▁chester	-11.2521
gh	-11.2521
▁mild	-11.2525
▁initiative	-11.2525
▁chronicle	-11.2525
▁echo	-11.2526
▁argues	-11.2526
▁ser	-11.2526
▁mature	-11.2528
amp	-11.2533
ichi	-11.2534
▁encountered	-11.2534
▁prey	-11.2538
▁commit	-11.2538
▁str	-11.2543
▁manuel	-11.2546
▁prepare	-11.2551
sl	-11.2552
oph	-11.2553
ress	-11.2557
▁ideology	-11.2558
▁aggressive	-11.2558
▁skull	-11.2563
▁torture	-11.2568
▁correspondence	-11.2569
▁amazon	-11.2569
▁sci	-11.2569
etta	-11.2572
▁mah	-11.2576
▁seized	-11.2577
▁poorly	-11.2578
▁mph	-11.2579
▁masses	-11.258
▁anywhere	-11.258
▁ninth	-11.2581
uartet	-11.2584
▁lasting	-11.2584
rp	-11.2585
▁clause	-11.2587
fo	-11.2588
▁eugene	-11.2591
onic	-11.2591
▁harper	-11.2598
▁accessed	-11.26
▁aftermath	-11.26
▁boot	-11.2604
▁pipe	-11.2604
win	-11.2606
▁maveric	-11.2606
▁chuck	-11.2607
▁platinum	-11.2609
▁scan	-11.2609
ilo	-11.2609
▁respond	-11.2611
▁falcon	-11.2613
▁costa	-11.2614
▁reserves	-11.2617
▁knowing	-11.2617
▁croatia	-11.2619
▁pursuit	-11.262
▁reg	-11.262
▁expect	-11.262
nie	-11.2621
▁inverse	-11.2622
▁fossil	-11.2622
▁festivals	-11.2624
▁sanskrit	-11.2626
▁phillips	-11.2627
ualities	-11.263
cle	-11.2631
▁condemned	-11.2635
▁comprised	-11.2635
hen	-11.2638
▁python	-11.2639
▁crusade	-11.264
▁morocco	-11.2643
▁attract	-11.2644
tia	-11.265
▁wasn	-11.2653
▁whenever	-11.2655
▁advent	-11.2661
▁assumption	-11.2662
▁enters	-11.2665
▁midnight	-11.2666
▁paperback	-11.2667
▁disappeared	-11.267
▁collo	-11.2671
pu	-11.2672
▁flesh	-11.2678
▁craig	-11.2679
chin	-11.2682
▁eva	-11.2682
▁organisations	-11.2682
▁mickey	-11.2684
▁valve	-11.2685
▁freely	-11.2686
▁murphy	-11.2689
▁rays	-11.2693
▁kurt	-11.2694
▁utility	-11.2695
▁farmer	-11.2697
▁constellation	-11.2697
▁dense	-11.2699
▁triumph	-11.2705
ith	-11.2711
▁pas	-11.2722
▁kenneth	-11.2723
▁thrust	-11.2727
▁doc	-11.2728
▁centres	-11.2731
▁celebrate	-11.2734
oel	-11.2736
▁gathered	-11.2737
▁repeat	-11.2739
▁cooking	-11.2739
▁touring	-11.2744
▁alberta	-11.2744
▁gall	-11.2746
▁cognitive	-11.2747
▁unclear	-11.2749
▁neuro	-11.2754
▁protests	-11.2757
▁reasonable	-11.2761
▁creature	-11.2761
▁assets	-11.2762
▁oath	-11.2764
▁loud	-11.2767
▁albanian	-11.2768
▁ceo	-11.277
▁motors	-11.2773
▁pack	-11.2776
▁colours	-11.2779
cap	-11.278
gal	-11.278
▁download	-11.2781
▁irving	-11.2787
▁guided	-11.2788
▁cruz	-11.2788
▁prohibition	-11.2788
▁civilians	-11.2789
▁banner	-11.279
▁thames	-11.2792
▁lesbian	-11.2793
▁bald	-11.2794
▁resignation	-11.2794
▁absorbed	-11.2795
▁fee	-11.2795
▁faction	-11.2797
▁carefully	-11.2797
tur	-11.2801
▁solely	-11.2802
▁technological	-11.2805
uring	-11.2805
▁clarke	-11.2807
▁philippine	-11.2812
▁derivative	-11.2813
uv	-11.2814
▁organs	-11.2815
▁whig	-11.2816
▁flanders	-11.2816
▁electromagnetic	-11.2817
▁encourage	-11.2818
▁burton	-11.2821
▁garrison	-11.2822
▁acids	-11.2828
▁wheels	-11.2833
▁rating	-11.2835
gn	-11.2835
▁calculus	-11.284
▁contribute	-11.2842
▁ox	-11.2843
▁bullet	-11.285
▁sco	-11.2851
▁brooks	-11.2852
▁swamp	-11.2857
▁cy	-11.2857
▁sudden	-11.2858
bol	-11.2858
▁swan	-11.2859
▁deer	-11.2862
lands	-11.2862
▁nicknamed	-11.2864
▁kur	-11.2865
gra	-11.2865
matic	-11.2867
rb	-11.2868
▁agreements	-11.2872
▁detect	-11.2873
ht	-11.2879
▁pie	-11.288
▁doom	-11.2881
mit	-11.2882
▁giovanni	-11.2886
▁attractive	-11.2893
▁nat	-11.2898
ld	-11.29
▁practiced	-11.2902
▁barn	-11.2902
▁enhanced	-11.2903
▁infamous	-11.2904
▁removing	-11.2904
▁inferior	-11.2904
▁explicit	-11.2904
▁videos	-11.2906
▁spelled	-11.291
▁leather	-11.291
mc	-11.2913
▁reformed	-11.2914
▁indicating	-11.2916
iko	-11.2918
▁arcade	-11.2919
▁homo	-11.2921
▁promoting	-11.2922
▁chant	-11.2923
▁liver	-11.2923
▁rebels	-11.2924
▁weekend	-11.2925
▁monthly	-11.2927
▁helps	-11.2927
▁recreation	-11.2929
▁cruiser	-11.2932
▁implement	-11.2938
▁mes	-11.2941
▁greg	-11.2943
▁criti	-11.2945
▁hampton	-11.2945
▁informal	-11.2947
atory	-11.2947
▁specification	-11.2951
dis	-11.2951
▁cp	-11.2951
▁fisher	-11.2953
▁reserved	-11.2957
▁nervous	-11.2957
▁prix	-11.2961
▁lectures	-11.2962
▁chocolate	-11.2963
▁mood	-11.2963
lk	-11.2965
▁rider	-11.2967
▁cincinnati	-11.2967
▁passion	-11.2973
illo	-11.2974
▁totally	-11.2978
▁gibson	-11.2981
ssel	-11.2982
tti	-11.2983
▁tsar	-11.2984
▁shrine	-11.2985
wick	-11.2987
ectives	-11.2996
▁opportunities	-11.2998
▁venezuela	-11.3001
▁intersection	-11.3004
▁linguistics	-11.3004
▁plato	-11.3008
▁ignored	-11.3009
▁astronomer	-11.3009
▁chemist	-11.301
▁por	-11.301
▁static	-11.3016
▁ot	-11.3017
▁experts	-11.3019
▁kenya	-11.302
▁farms	-11.302
▁sega	-11.3022
▁obsolete	-11.3022
▁charity	-11.3024
▁ethiopia	-11.3027
▁acronym	-11.3028
▁notorious	-11.3028
dg	-11.3031
▁enabled	-11.3034
ray	-11.3037
▁rum	-11.3038
▁impressive	-11.304
▁neu	-11.3042
▁expanding	-11.3043
▁crucial	-11.3045
▁latitude	-11.3046
▁homosexuality	-11.3047
cu	-11.3049
▁viewers	-11.3051
▁pirates	-11.3051
▁nin	-11.3052
▁praise	-11.3052
▁marxist	-11.3053
▁obviously	-11.3056
▁outcome	-11.3058
▁barcelona	-11.3058
ualified	-11.3059
▁membrane	-11.3063
▁switched	-11.3064
▁discuss	-11.3066
▁flame	-11.3066
▁hierarchy	-11.307
▁heinrich	-11.307
▁obscure	-11.307
▁honorary	-11.3072
▁museums	-11.3077
▁virtue	-11.3077
▁lynch	-11.3079
▁comparable	-11.3082
hei	-11.3082
▁poles	-11.3082
▁vitamin	-11.3082
▁favourite	-11.3087
▁chemicals	-11.3088
▁platforms	-11.3091
▁thirteen	-11.3093
ule	-11.3095
▁famously	-11.3101
▁ei	-11.3101
▁fer	-11.3103
lot	-11.3103
▁hurt	-11.3105
▁lamb	-11.3105
▁barrier	-11.3108
▁toxic	-11.3109
▁ratings	-11.3109
▁distances	-11.311
▁shallow	-11.3112
▁talks	-11.3113
▁advantages	-11.3116
▁welcome	-11.3117
▁whit	-11.3118
▁gains	-11.3119
▁filed	-11.3123
▁dai	-11.3123
▁displays	-11.3124
▁baro	-11.3124
▁ease	-11.3127
▁guarantee	-11.3129
▁freeway	-11.313
▁ty	-11.313
▁playoffs	-11.3133
▁boards	-11.3134
▁spear	-11.3135
▁dioxide	-11.3136
▁glenn	-11.3136
▁brook	-11.3139
bor	-11.3142
▁loan	-11.3144
mod	-11.3146
uil	-11.3147
▁physiology	-11.3148
▁lib	-11.315
▁nearest	-11.3157
far	-11.3158
▁gaul	-11.3158
▁capabilities	-11.3166
▁ironically	-11.3166
▁hoped	-11.3168
▁null	-11.3173
▁twins	-11.3175
fr	-11.3176
▁gan	-11.3177
▁brussels	-11.3178
▁temporarily	-11.3178
ments	-11.318
▁suite	-11.3182
▁mechanisms	-11.3183
▁demons	-11.3185
▁tragedy	-11.319
▁clerk	-11.319
▁hanover	-11.3191
▁rec	-11.3193
▁relatives	-11.3194
▁descended	-11.3196
▁savage	-11.3197
tar	-11.3201
▁venture	-11.3201
idi	-11.3203
▁chambers	-11.3203
▁petersburg	-11.3206
▁lamp	-11.3207
▁evangelical	-11.3208
▁grande	-11.3209
▁modes	-11.3211
▁tough	-11.3211
▁silence	-11.3214
▁twist	-11.3216
cas	-11.3216
▁riot	-11.3217
▁rep	-11.3223
▁db	-11.3225
▁birthplace	-11.3226
▁ulster	-11.3227
▁rid	-11.3233
▁stevens	-11.3233
▁conversation	-11.3233
▁precisely	-11.3233
▁pod	-11.3239
▁bennett	-11.324
▁powder	-11.324
▁bos	-11.324
▁chapters	-11.3241
▁funded	-11.3241
▁measuring	-11.3244
▁commercially	-11.3246
▁spike	-11.3247
▁commitment	-11.3248
▁defended	-11.3249
▁suspension	-11.325
▁saddam	-11.3251
▁spirits	-11.3254
▁stops	-11.3254
▁gustav	-11.3255
▁monks	-11.3255
▁instances	-11.3258
▁conservatives	-11.3259
▁footballer	-11.3259
▁viking	-11.3259
day	-11.3261
▁prairie	-11.3263
▁comp	-11.3265
▁mansion	-11.3266
▁treasury	-11.3269
▁manor	-11.327
ido	-11.3272
orum	-11.3274
ili	-11.3277
▁presents	-11.3278
▁clothes	-11.328
▁blank	-11.3281
▁eliminated	-11.3282
▁breast	-11.3282
▁module	-11.3283
▁cv	-11.3287
▁silicon	-11.3287
▁simpsons	-11.3289
▁gill	-11.329
are	-11.3297
lov	-11.3298
▁assisted	-11.3299
▁thunder	-11.33
▁reservoir	-11.3301
▁cameras	-11.3305
▁hollow	-11.3305
▁cube	-11.3307
▁temp	-11.3308
▁lithuania	-11.3311
▁arbitrary	-11.3312
▁mk	-11.3312
▁systematic	-11.3313
▁recover	-11.3313
key	-11.3315
▁topology	-11.3317
▁bottle	-11.332
▁psi	-11.3322
▁metals	-11.3327
▁provisional	-11.3328
▁frankfurt	-11.333
▁plates	-11.3332
▁maxim	-11.3333
▁fried	-11.3335
▁cache	-11.3342
▁lighting	-11.3342
▁albany	-11.3345
▁warrant	-11.3346
▁patch	-11.3346
▁hearts	-11.3348
rad	-11.3352
▁britannica	-11.3356
▁expense	-11.3357
kk	-11.336
▁respected	-11.336
▁bou	-11.336
▁momentum	-11.3364
▁saving	-11.3365
▁barrel	-11.3367
▁naked	-11.3369
▁yuan	-11.337
▁duo	-11.3371
▁fen	-11.3372
▁volunteers	-11.3372
▁plymouth	-11.3373
▁durham	-11.3373
▁acclaimed	-11.3373
▁columns	-11.3374
▁battleship	-11.3375
▁lt	-11.3376
ann	-11.3378
▁duchess	-11.3379
▁ecology	-11.338
▁compiled	-11.3381
▁withdrawal	-11.3382
▁gel	-11.3383
▁mao	-11.3384
▁nights	-11.3385
▁surfaces	-11.3385
▁nucleus	-11.3385
▁ticket	-11.3389
▁bot	-11.339
ened	-11.3394
▁contracts	-11.3395
▁gla	-11.3402
▁finals	-11.3403
ago	-11.3405
▁hopkins	-11.341
▁arrive	-11.341
▁dig	-11.3414
ovich	-11.3417
▁preceded	-11.3418
▁possess	-11.3418
away	-11.342
▁cloth	-11.342
▁theatrical	-11.3422
▁asking	-11.3423
sb	-11.3423
uested	-11.3426
▁yield	-11.3427
nate	-11.3435
wing	-11.3436
▁establishments	-11.3437
▁vampire	-11.3438
▁malay	-11.3438
▁divorced	-11.3438
▁ernst	-11.3441
▁capability	-11.3441
▁reactor	-11.3443
▁cad	-11.3445
▁rex	-11.3446
▁etymology	-11.3447
▁violation	-11.345
▁dealt	-11.3453
▁diagnosis	-11.3453
hir	-11.3454
▁wells	-11.3454
▁corporations	-11.3458
▁thread	-11.3458
band	-11.3459
▁posts	-11.3459
▁tactical	-11.346
▁pump	-11.3463
▁incomplete	-11.3466
▁pace	-11.3466
▁maple	-11.3466
asa	-11.3466
▁awareness	-11.3467
sar	-11.3468
▁semitic	-11.3468
▁slight	-11.3469
▁ancestry	-11.3472
▁genius	-11.3475
▁pt	-11.3476
▁horizon	-11.3478
▁pulled	-11.3479
▁governmental	-11.348
▁helicopter	-11.3481
▁antenna	-11.3482
▁calculated	-11.3483
▁guild	-11.3484
▁correctly	-11.3485
▁relay	-11.3485
▁assassinated	-11.3486
▁dukes	-11.3488
▁motto	-11.3489
mans	-11.349
▁uranium	-11.349
▁deposits	-11.3496
uilibrium	-11.3497
▁fires	-11.3499
▁cease	-11.3503
▁salvador	-11.3503
▁sophisticated	-11.3503
▁herald	-11.3505
▁athlete	-11.3507
▁proponents	-11.3507
▁mathematicians	-11.3508
hurst	-11.3508
lle	-11.3508
ois	-11.3509
hn	-11.3509
▁volcanic	-11.3509
▁prefix	-11.3511
ections	-11.3516
▁gh	-11.3516
▁sodium	-11.352
▁drove	-11.352
pod	-11.3521
▁reception	-11.3523
▁attributes	-11.3524
▁separately	-11.3524
umi	-11.3525
▁measurements	-11.353
▁periodic	-11.3534
▁everyday	-11.3535
▁pike	-11.3536
inger	-11.354
ova	-11.3547
▁wwii	-11.3552
iu	-11.3555
▁rib	-11.3557
ote	-11.356
▁homosexual	-11.3562
shire	-11.3564
▁extraordinary	-11.3566
▁screenplay	-11.3566
▁manuscripts	-11.3568
▁nitrogen	-11.3572
▁greene	-11.3574
▁oxide	-11.3575
▁economist	-11.3576
brook	-11.3577
▁blair	-11.3579
▁provisions	-11.358
gin	-11.3582
▁collect	-11.3584
▁resolved	-11.3584
uiry	-11.359
ungle	-11.3592
▁loosely	-11.3592
▁communists	-11.3598
▁rand	-11.3599
▁informed	-11.3599
▁chips	-11.36
▁laura	-11.3602
stra	-11.3602
▁cliff	-11.3605
▁elephant	-11.3608
▁mixing	-11.361
▁kilometres	-11.3614
▁dramatically	-11.3617
▁competitors	-11.3618
▁missionary	-11.3619
▁dynamics	-11.3621
bur	-11.3622
▁worlds	-11.3623
▁deliberately	-11.3626
▁tubes	-11.3627
▁excessive	-11.363
▁servers	-11.3633
▁observatory	-11.3635
▁catalan	-11.3635
▁tetra	-11.3642
▁consistently	-11.3643
▁nancy	-11.3645
▁fascist	-11.3648
▁liberals	-11.365
▁mentions	-11.3653
▁evaluation	-11.3654
▁interference	-11.3654
▁pri	-11.3656
▁dominican	-11.3659
▁tract	-11.3661
▁morrison	-11.3664
▁vols	-11.3665
▁annexed	-11.3665
▁celebrity	-11.3666
▁programmes	-11.3667
▁assessment	-11.3668
▁chains	-11.367
▁decrease	-11.3671
▁arabs	-11.3671
▁eliminate	-11.3672
▁brilliant	-11.3673
▁fountain	-11.3673
▁psycho	-11.3673
▁deployed	-11.3677
▁margin	-11.3679
bal	-11.3679
▁default	-11.3679
▁predict	-11.3679
▁precision	-11.3679
▁eclipse	-11.3681
▁nazis	-11.3683
▁compositions	-11.3684
▁encoding	-11.3685
▁treaties	-11.3687
▁sixteen	-11.3687
▁kara	-11.3689
▁facto	-11.3691
▁salem	-11.3691
▁acute	-11.3694
▁possessed	-11.3696
ogen	-11.3696
▁discrimination	-11.3698
vent	-11.3703
▁connects	-11.3703
▁malcolm	-11.3705
▁impression	-11.3705
▁comprises	-11.3706
yne	-11.3709
▁magnet	-11.371
▁phantom	-11.3711
▁aristotle	-11.3711
▁owl	-11.3712
▁balls	-11.3712
▁bloom	-11.3713
▁pepper	-11.3717
▁dub	-11.3717
▁gore	-11.372
▁acknowledged	-11.3722
▁spa	-11.3723
▁bwv	-11.3724
▁internationally	-11.3724
▁basil	-11.3729
▁klein	-11.373
▁anonymous	-11.3731
▁dx	-11.3732
cs	-11.3732
▁observe	-11.3737
▁affiliated	-11.374
▁click	-11.3742
▁lighthouse	-11.3742
cia	-11.3747
▁dozen	-11.3747
▁cry	-11.3748
code	-11.3749
▁cas	-11.375
▁embedded	-11.3756
▁manage	-11.3756
pot	-11.3756
▁curtis	-11.3757
enne	-11.3758
▁poison	-11.3759
▁tended	-11.3762
shan	-11.3762
▁withdrew	-11.3762
▁lar	-11.3766
▁idol	-11.3767
▁freed	-11.377
▁inland	-11.3778
▁americas	-11.3778
sin	-11.378
▁og	-11.3781
▁complement	-11.3781
▁payment	-11.3784
▁sta	-11.3785
▁ff	-11.3785
▁wishes	-11.3785
▁liu	-11.3788
▁modification	-11.3794
▁editorial	-11.3795
dom	-11.3796
amo	-11.3797
▁availability	-11.38
▁readily	-11.3801
▁discrete	-11.3807
lus	-11.3807
phon	-11.3807
comp	-11.3808
▁elvis	-11.3809
▁traveling	-11.381
▁ancestors	-11.3812
▁deletion	-11.3813
▁overcome	-11.3813
▁font	-11.3817
hai	-11.3818
▁drift	-11.382
bot	-11.3821
▁monopoly	-11.3826
▁syntax	-11.3826
alo	-11.3831
▁banking	-11.3831
nc	-11.3834
▁yahoo	-11.3839
▁aero	-11.3846
lac	-11.3846
▁ant	-11.3847
▁traveled	-11.3853
▁beaches	-11.3854
▁documentation	-11.3855
▁temples	-11.3856
▁ming	-11.3856
▁entries	-11.3859
▁icon	-11.3861
▁faithful	-11.3862
usa	-11.3862
▁luxembourg	-11.3862
▁chin	-11.3863
▁dwarf	-11.3865
▁revived	-11.3868
▁fil	-11.3869
▁ana	-11.387
▁cameo	-11.3871
▁rainbow	-11.3871
▁memories	-11.3872
▁dom	-11.3872
aku	-11.3872
▁proceedings	-11.3874
▁imports	-11.3876
▁wax	-11.3879
▁prc	-11.388
part	-11.3883
▁sick	-11.3883
▁federalist	-11.3884
▁evident	-11.3885
▁mot	-11.3885
sley	-11.3886
▁deity	-11.3888
▁benedict	-11.3889
▁painters	-11.389
▁trends	-11.3896
▁syn	-11.3897
▁ranch	-11.3898
▁rent	-11.39
▁sporting	-11.3902
tos	-11.3902
▁buses	-11.3902
▁nash	-11.3908
▁treasure	-11.3909
▁forgotten	-11.391
▁volunteer	-11.3914
▁portable	-11.3916
▁seemingly	-11.3917
▁rot	-11.3918
▁fabric	-11.3921
▁catholicism	-11.3923
▁uncommon	-11.3923
▁basilica	-11.3924
▁wizard	-11.3925
▁submarines	-11.3926
▁radius	-11.3926
gle	-11.3928
omo	-11.3929
▁inducted	-11.393
▁persecution	-11.393
▁baptism	-11.393
▁prague	-11.393
▁introduce	-11.393
▁bosnia	-11.393
▁peaceful	-11.3931
▁miscellaneous	-11.3936
uana	-11.3937
▁observers	-11.3937
▁scales	-11.3938
▁kha	-11.3941
▁beating	-11.3941
▁bicycle	-11.3944
▁porter	-11.3944
uli	-11.3945
▁keyboards	-11.3946
▁plug	-11.3947
▁knot	-11.3948
law	-11.3949
▁colin	-11.3952
▁cure	-11.3953
▁induced	-11.3954
▁reveal	-11.3954
▁dor	-11.3955
▁percussion	-11.3962
▁floyd	-11.3962
▁lighter	-11.3964
ournalists	-11.3966
▁rally	-11.3966
▁funk	-11.3969
▁spiral	-11.397
▁wellington	-11.3972
▁gre	-11.3974
▁communicate	-11.3975
▁pseudonym	-11.3975
▁hey	-11.3976
maker	-11.3977
▁webster	-11.3979
▁bog	-11.398
▁shanghai	-11.3982
▁dish	-11.3986
▁citizenship	-11.3989
▁similarities	-11.3993
hall	-11.3996
san	-11.3998
▁paying	-11.4004
▁mob	-11.4006
▁privy	-11.4008
▁dodge	-11.4011
▁continuity	-11.4015
▁bonus	-11.4017
los	-11.4019
▁reformation	-11.402
▁controlling	-11.402
▁fragments	-11.4022
▁environments	-11.4023
▁curse	-11.4023
▁pyramid	-11.4024
▁contra	-11.4024
▁lem	-11.4026
▁destroying	-11.4028
▁salvation	-11.4034
▁pretty	-11.4035
▁kas	-11.4039
▁unicode	-11.4042
▁rely	-11.4043
apa	-11.4044
▁nowadays	-11.4048
▁closure	-11.4048
▁cs	-11.4049
▁zones	-11.4049
▁sigma	-11.405
▁predicted	-11.4052
sm	-11.4052
▁dur	-11.4054
▁expressions	-11.4054
▁trophy	-11.4057
▁presbyterian	-11.4058
ved	-11.4059
▁athletics	-11.406
▁lor	-11.4066
▁lanka	-11.4067
▁mess	-11.4067
▁oracle	-11.4068
▁fraud	-11.4071
lor	-11.4074
▁fitted	-11.4075
lets	-11.4078
▁graves	-11.4079
df	-11.4083
▁gravitational	-11.4083
▁covenant	-11.4087
▁hostile	-11.4088
▁tal	-11.4089
▁gy	-11.409
▁roc	-11.409
▁chang	-11.4093
▁scout	-11.4094
▁asks	-11.4094
▁lennon	-11.4094
gram	-11.4095
ste	-11.4096
▁playwright	-11.4097
▁consul	-11.4097
▁cox	-11.4099
▁commands	-11.41
▁rhode	-11.4103
▁ple	-11.4104
▁syrian	-11.4104
▁sil	-11.4106
▁bride	-11.4107
▁southeastern	-11.4108
pos	-11.4111
▁acre	-11.4111
▁chronicles	-11.4113
▁europeans	-11.4113
▁kuwait	-11.4114
▁hereditary	-11.4114
▁abbreviated	-11.4114
▁spell	-11.4115
▁coll	-11.4115
▁fraction	-11.4116
▁kl	-11.4118
▁bert	-11.4118
▁ut	-11.4118
▁reporter	-11.4122
▁magnus	-11.4122
▁activists	-11.4126
▁intensity	-11.4127
▁cellular	-11.4127
▁republicans	-11.4131
▁pic	-11.4131
▁attending	-11.414
▁dem	-11.414
▁zeus	-11.4141
▁backing	-11.4146
▁decimal	-11.4147
▁determination	-11.4147
▁fastest	-11.415
▁rag	-11.4151
▁humorous	-11.4151
▁cosmic	-11.4154
▁succeed	-11.4154
▁browser	-11.4157
▁erie	-11.4157
▁consort	-11.416
▁hopes	-11.4161
▁coil	-11.4161
▁discussions	-11.4161
▁nes	-11.4162
▁aboard	-11.4162
▁nile	-11.4163
▁challenged	-11.4163
▁steep	-11.4163
▁arise	-11.4163
enburg	-11.4165
▁publicity	-11.4168
▁defeating	-11.4169
▁chord	-11.4171
▁bust	-11.4172
▁ou	-11.4174
nas	-11.4176
▁crater	-11.4177
▁plague	-11.4181
▁marines	-11.4181
▁button	-11.4183
▁healthy	-11.4186
▁processors	-11.4186
▁rabbit	-11.4187
▁descriptions	-11.4187
▁py	-11.4187
▁cedar	-11.4188
bri	-11.4191
▁gem	-11.4193
▁streams	-11.4193
▁irregular	-11.4193
▁sauce	-11.4197
▁fri	-11.4198
▁revision	-11.4199
▁hussein	-11.42
ere	-11.42
ire	-11.4204
▁performer	-11.4204
owski	-11.4207
rk	-11.4207
▁paradox	-11.4209
▁parameters	-11.4211
▁tsu	-11.4213
▁wore	-11.4217
ologist	-11.4219
▁breath	-11.422
▁neighbouring	-11.4224
▁pyr	-11.4225
▁burst	-11.4225
cast	-11.4234
▁elevated	-11.4235
▁sac	-11.4235
▁peerage	-11.4236
▁assembled	-11.4243
▁bounded	-11.4247
▁wei	-11.4248
▁beast	-11.425
▁nas	-11.4255
▁arriving	-11.4261
▁synthetic	-11.4261
▁denominations	-11.4266
▁winston	-11.4267
▁councils	-11.4269
▁rip	-11.4273
▁newark	-11.4274
▁loaded	-11.4278
icus	-11.4281
▁differs	-11.4281
▁danny	-11.4282
▁failing	-11.4283
▁conrad	-11.4286
▁autonomy	-11.4288
▁memphis	-11.4288
▁refuge	-11.4288
▁tenth	-11.4293
▁homeland	-11.4293
▁deliver	-11.4295
▁maya	-11.4297
▁choir	-11.43
▁blog	-11.43
▁louise	-11.4306
▁recreational	-11.4306
▁foundations	-11.4306
iana	-11.4309
▁stance	-11.4309
▁wikipro	-11.4315
▁modest	-11.4318
cer	-11.4325
▁carlo	-11.4327
▁provision	-11.4329
▁websites	-11.433
▁shepherd	-11.4335
▁pursued	-11.4337
▁lev	-11.4339
▁absent	-11.434
▁composite	-11.4342
▁sidney	-11.4342
vis	-11.4342
▁speaks	-11.4345
zz	-11.4346
▁harmonic	-11.4346
▁interpretations	-11.4347
▁determining	-11.4348
▁subtle	-11.4349
▁mathrm	-11.4349
urg	-11.4349
▁monkey	-11.435
▁eventual	-11.4353
▁comparative	-11.4356
▁watching	-11.4358
▁mongol	-11.4361
▁anger	-11.4362
▁somewhere	-11.4362
▁viscount	-11.4362
▁considers	-11.4364
▁berry	-11.4365
▁molecule	-11.4367
▁northeastern	-11.4369
▁associates	-11.4369
▁hamburg	-11.4371
▁babylon	-11.4372
▁ang	-11.4373
▁arrangements	-11.4376
lig	-11.4381
▁visits	-11.4384
▁catalogue	-11.4385
▁sei	-11.4387
▁norm	-11.4388
▁essence	-11.4389
▁keen	-11.439
▁folklore	-11.4396
▁northwestern	-11.4397
▁consumers	-11.4399
▁theologian	-11.4401
urs	-11.4403
▁strategies	-11.4403
▁lithuanian	-11.4404
▁corresponds	-11.4404
urisdictions	-11.4407
▁binomial	-11.441
▁react	-11.4412
▁secured	-11.4414
▁sap	-11.4417
▁unification	-11.442
▁heavyweight	-11.4424
▁rochester	-11.4424
▁chiefly	-11.4424
▁od	-11.4424
▁immune	-11.4425
iti	-11.4425
▁afternoon	-11.443
▁gandhi	-11.443
▁feeding	-11.4431
tive	-11.4435
▁extinction	-11.4442
▁symmetry	-11.4444
nk	-11.4444
▁accordance	-11.4444
▁rfc	-11.4444
ement	-11.4445
▁scattered	-11.4446
▁comet	-11.4447
▁consonant	-11.4449
ving	-11.445
ned	-11.4454
▁sherman	-11.4458
rah	-11.4459
▁chen	-11.4463
▁methodist	-11.4463
▁vor	-11.4465
▁conceived	-11.4466
▁fuller	-11.4469
▁nh	-11.447
ological	-11.4472
▁cherry	-11.4475
▁preventing	-11.4475
▁goddesses	-11.4477
▁cone	-11.4477
▁kant	-11.4477
▁subway	-11.4479
▁argentine	-11.4479
oda	-11.448
▁consideration	-11.4482
▁tenure	-11.4485
▁cumberland	-11.4485
▁slogan	-11.4485
bc	-11.4487
▁villain	-11.4487
▁fig	-11.4495
▁demonstrate	-11.4498
▁enlightenment	-11.4499
▁vent	-11.4503
▁knockout	-11.4506
▁suggesting	-11.4507
▁torpedo	-11.4508
▁habitat	-11.4511
▁diving	-11.4511
ustin	-11.4513
▁pel	-11.4514
row	-11.4515
▁mandate	-11.4517
▁macedonia	-11.4518
▁alto	-11.4519
bes	-11.4519
▁submitted	-11.452
▁newcastle	-11.4522
▁prohibited	-11.4523
▁owing	-11.4524
▁asteroid	-11.4526
▁proximity	-11.4526
▁battlefield	-11.4527
ters	-11.4528
▁gerald	-11.453
hra	-11.4533
▁geoffrey	-11.4533
▁airplane	-11.4535
▁advocated	-11.4536
lf	-11.4538
▁lucy	-11.4541
ening	-11.4542
▁yi	-11.4543
▁harvest	-11.4546
pping	-11.4546
▁samurai	-11.4547
▁desktop	-11.4547
▁proposals	-11.4548
▁playstation	-11.4548
▁edwin	-11.4549
▁roberts	-11.4549
▁emerging	-11.4554
▁earn	-11.4557
▁fault	-11.4558
▁polynomial	-11.456
▁gri	-11.4562
▁indoor	-11.4563
nar	-11.4568
down	-11.457
▁gra	-11.4573
▁eaten	-11.4575
▁exp	-11.4576
erg	-11.4576
▁thoughts	-11.4576
▁xiv	-11.4578
▁departed	-11.458
tius	-11.4582
▁crawford	-11.4582
udi	-11.4583
▁schemes	-11.4583
▁trap	-11.4585
▁flowing	-11.4585
play	-11.4586
das	-11.4587
ault	-11.4587
▁pius	-11.4588
▁stereo	-11.4588
▁copenhagen	-11.4589
▁marginal	-11.4589
▁armenian	-11.4594
▁hatch	-11.4594
▁xml	-11.4595
pers	-11.4595
▁pierce	-11.4596
▁sentences	-11.4597
arch	-11.4602
▁calvin	-11.4602
▁duncan	-11.4603
▁sul	-11.4605
▁offense	-11.4605
▁shots	-11.4607
▁rated	-11.461
▁reproduction	-11.461
▁southwestern	-11.461
▁kam	-11.4611
▁kay	-11.4612
▁resembles	-11.4616
▁minneapolis	-11.4617
▁subsidiary	-11.4617
▁badly	-11.4617
▁chamberlain	-11.4618
▁esp	-11.4619
▁beaver	-11.462
▁gases	-11.4621
uares	-11.4623
▁coordinate	-11.4623
▁mistake	-11.4625
▁openly	-11.4629
▁negro	-11.4629
▁prop	-11.4629
▁diocese	-11.4631
▁fal	-11.4631
▁lance	-11.4631
▁sig	-11.4632
ched	-11.4633
▁ct	-11.4633
▁armour	-11.4635
▁dei	-11.4638
▁continuously	-11.4638
▁visitor	-11.4639
▁appeals	-11.4639
▁lateral	-11.4643
rot	-11.4645
▁dinner	-11.4646
▁resist	-11.4646
ense	-11.465
▁aboriginal	-11.4652
▁invisible	-11.4652
▁releasing	-11.4652
▁fra	-11.4653
▁rigid	-11.4654
▁bacon	-11.4655
▁shan	-11.4657
▁developer	-11.4662
▁muscles	-11.4664
▁wit	-11.4664
▁bloody	-11.4665
▁rope	-11.467
▁cdot	-11.4672
▁hello	-11.4672
amine	-11.4673
gue	-11.4674
▁nashville	-11.4674
anga	-11.4674
▁castro	-11.4675
▁resemble	-11.468
▁outdoor	-11.468
▁connor	-11.4681
▁tense	-11.4681
▁crest	-11.4683
▁onwards	-11.4684
amaica	-11.4685
▁burke	-11.4687
▁lecture	-11.469
▁pier	-11.4692
rav	-11.4692
▁machinery	-11.4694
▁attendance	-11.4694
▁bassist	-11.4701
▁girlfriend	-11.4701
▁habsburg	-11.4701
als	-11.4705
▁til	-11.4709
nos	-11.4711
▁ballet	-11.4719
▁lyon	-11.472
bell	-11.4721
▁highlands	-11.4727
▁clone	-11.4728
▁limitations	-11.4729
▁andrews	-11.473
▁generals	-11.4731
▁mann	-11.4734
▁handbook	-11.4734
▁sufficiently	-11.4735
▁civic	-11.4736
▁enable	-11.4737
▁hinduism	-11.4741
▁diary	-11.4741
▁reflects	-11.4743
▁tibetan	-11.4744
▁inscription	-11.4746
▁brings	-11.4747
▁criticisms	-11.4749
▁cart	-11.4753
▁belonged	-11.4754
▁threats	-11.4754
▁settings	-11.4754
▁tender	-11.4754
pc	-11.4755
▁eds	-11.4756
▁felix	-11.4757
▁beef	-11.4758
▁maxwell	-11.4758
wer	-11.4764
▁publish	-11.4764
ales	-11.4767
▁pulse	-11.4767
▁stolen	-11.4768
▁bee	-11.4768
nor	-11.4769
▁approached	-11.4771
▁knife	-11.4771
▁soup	-11.4772
▁competitions	-11.4778
▁sergeant	-11.4779
▁bran	-11.4781
▁reflection	-11.4781
hm	-11.4784
▁norton	-11.4784
▁advances	-11.4784
▁gm	-11.4785
▁rem	-11.4788
▁vocalist	-11.479
act	-11.4791
▁lenin	-11.4792
▁sociology	-11.4793
▁cameron	-11.4794
▁filmography	-11.4795
▁substantially	-11.4799
▁penguin	-11.4801
▁lambda	-11.4801
▁careful	-11.4802
▁reasoning	-11.4804
rl	-11.4804
bid	-11.4805
▁nobles	-11.4807
▁announcement	-11.4808
▁geology	-11.4809
▁introducing	-11.4814
▁combine	-11.4816
▁sudan	-11.4817
▁fruits	-11.4819
▁edges	-11.482
ost	-11.4825
▁eb	-11.4826
▁inclusion	-11.4828
▁shoulder	-11.4828
▁acc	-11.4828
▁cle	-11.4829
▁maiden	-11.4829
▁kate	-11.4829
▁classics	-11.4831
▁flee	-11.4831
▁permit	-11.4835
▁smoking	-11.4835
▁bigger	-11.4836
▁memoirs	-11.4837
▁traded	-11.4839
▁suppose	-11.4842
▁motivation	-11.4842
▁spark	-11.4843
▁rama	-11.4843
▁organised	-11.4845
pat	-11.4846
▁kom	-11.4848
▁collecting	-11.4849
▁mir	-11.4851
▁capitalist	-11.4852
▁imported	-11.4853
▁rises	-11.4853
▁antioch	-11.4853
▁rendering	-11.4854
▁counting	-11.4857
▁ancestor	-11.4858
▁constitute	-11.4859
▁loyalty	-11.4864
▁segments	-11.4866
mate	-11.487
▁crazy	-11.4871
▁conscious	-11.4871
▁priority	-11.4872
▁herman	-11.4874
▁linda	-11.4875
eli	-11.4877
▁leopold	-11.4878
▁maker	-11.4879
stadt	-11.4881
rod	-11.4881
▁hermann	-11.4881
▁newport	-11.4882
▁ib	-11.4883
▁substitute	-11.4885
▁fake	-11.4886
ass	-11.4892
▁traits	-11.4893
▁gateway	-11.4896
▁sailor	-11.4896
▁hank	-11.4897
igo	-11.4897
▁turbo	-11.4899
▁guidance	-11.4899
▁demonstration	-11.4902
▁dominion	-11.4903
▁todd	-11.4904
erome	-11.4904
▁extract	-11.4905
▁cornwall	-11.4905
▁ego	-11.4906
▁karen	-11.4907
▁statute	-11.4909
bat	-11.4912
▁filming	-11.4915
▁avoided	-11.4915
▁slower	-11.4915
ency	-11.4919
▁pil	-11.492
▁recurring	-11.4921
▁achievements	-11.4926
tain	-11.4927
▁guru	-11.4928
▁steady	-11.4928
▁angry	-11.4929
▁bombers	-11.4932
▁stretch	-11.4937
▁lots	-11.4939
▁ein	-11.494
ines	-11.4941
▁focuses	-11.4942
▁assuming	-11.4943
▁plaza	-11.4944
▁founders	-11.4945
bound	-11.4956
▁finest	-11.4956
▁wage	-11.4957
▁detection	-11.4959
▁app	-11.4959
▁recall	-11.4959
▁shifted	-11.4961
▁vegetables	-11.4963
pper	-11.4964
arn	-11.4965
▁resign	-11.4966
▁servant	-11.4967
hood	-11.4967
ota	-11.4968
▁feared	-11.497
zh	-11.4979
▁wound	-11.4983
▁vocabulary	-11.4986
hara	-11.499
wald	-11.499
▁manila	-11.4992
▁passages	-11.4993
▁yan	-11.4995
▁geological	-11.4998
db	-11.4998
▁successive	-11.5
▁palmer	-11.5
▁multiplication	-11.5
▁allegations	-11.5001
▁hardy	-11.5004
▁teen	-11.5007
▁erik	-11.5009
▁melody	-11.5013
▁rockets	-11.5014
▁destiny	-11.5015
▁slot	-11.5015
▁defending	-11.5016
▁counted	-11.5021
▁incidents	-11.5022
▁aided	-11.5023
ohannes	-11.5024
▁sonata	-11.5026
▁sculptor	-11.5026
▁sharon	-11.5028
▁fellowship	-11.503
odo	-11.5033
▁combining	-11.5037
▁sox	-11.5038
▁teenage	-11.5039
▁footage	-11.504
fc	-11.504
▁mascot	-11.5041
▁laugh	-11.5042
hem	-11.5042
▁petition	-11.5043
ecting	-11.5044
die	-11.5044
▁renewed	-11.5047
▁resolve	-11.5051
▁associations	-11.5055
▁compiler	-11.5057
▁ceremonial	-11.5058
▁minds	-11.5062
▁ars	-11.5065
▁ammunition	-11.5066
▁kosovo	-11.5066
▁flute	-11.5071
nde	-11.5074
▁vir	-11.5074
orn	-11.5077
boy	-11.508
▁applying	-11.5084
▁borrowed	-11.5086
▁protocols	-11.509
▁authorized	-11.509
▁alternatively	-11.5093
▁climb	-11.5093
▁yourself	-11.5095
▁amiga	-11.5096
▁incorrect	-11.5097
▁climbing	-11.51
▁supernatural	-11.5102
▁pact	-11.5103
berry	-11.5104
app	-11.5106
▁alc	-11.5107
▁lim	-11.511
▁enforce	-11.511
hand	-11.511
▁pregnant	-11.5117
▁bir	-11.5118
▁combinations	-11.5121
▁succeeds	-11.5121
▁shark	-11.5122
▁hash	-11.5126
▁algeria	-11.5126
▁hind	-11.5128
ics	-11.5128
▁alps	-11.5129
▁insisted	-11.5129
▁basically	-11.513
▁raids	-11.5133
▁employ	-11.5133
▁improving	-11.5133
▁update	-11.5134
▁sees	-11.5135
kai	-11.5136
▁clients	-11.5137
ische	-11.5138
▁malta	-11.5138
dre	-11.514
▁collapsed	-11.5141
▁answers	-11.5142
▁lessons	-11.5144
ration	-11.5144
▁monuments	-11.5146
▁aug	-11.5147
▁generating	-11.5147
▁frost	-11.5149
▁poetic	-11.515
▁dial	-11.5151
▁preceding	-11.5154
▁fourteen	-11.5154
▁sunset	-11.5156
▁alcoholic	-11.5158
▁adds	-11.5161
▁rainfall	-11.5161
▁supplement	-11.5163
▁cum	-11.5164
ologists	-11.5165
▁franc	-11.5167
bird	-11.5167
▁reveals	-11.5167
▁galactic	-11.5168
▁pis	-11.5169
▁hancock	-11.5169
▁aragon	-11.5169
▁andre	-11.517
▁delayed	-11.517
uga	-11.5173
▁nationality	-11.5173
▁bypass	-11.5176
▁lawyers	-11.5177
▁favored	-11.518
▁brad	-11.5183
▁xii	-11.5185
▁searching	-11.5187
▁withdraw	-11.5187
▁dev	-11.5188
▁accurately	-11.5189
▁sl	-11.519
▁challenges	-11.519
▁victories	-11.5193
▁artwork	-11.5193
▁controller	-11.5194
▁passive	-11.5194
▁ipa	-11.5194
▁harp	-11.5196
▁mull	-11.5197
▁discourse	-11.5198
rick	-11.5201
▁kane	-11.5203
▁kitchen	-11.5206
pre	-11.5207
▁cycles	-11.521
sf	-11.521
▁arguing	-11.5213
▁economies	-11.5213
oon	-11.5213
▁phonetic	-11.5215
▁terra	-11.5215
▁organism	-11.5215
lee	-11.5217
▁bangladesh	-11.522
▁simplified	-11.522
▁exercises	-11.5221
▁dale	-11.5222
▁amy	-11.5224
logy	-11.5227
▁montenegro	-11.5235
▁paramount	-11.5235
▁hardcore	-11.5235
▁guitars	-11.5236
▁tau	-11.5236
▁diana	-11.5237
rom	-11.5238
▁estonia	-11.5239
▁panic	-11.5239
▁sean	-11.524
omy	-11.5245
issa	-11.5248
▁baden	-11.5248
▁accommodate	-11.525
uh	-11.525
▁gregorian	-11.5251
▁sterling	-11.5251
▁skilled	-11.5254
▁switching	-11.5254
▁libertarian	-11.5255
▁factories	-11.5261
ope	-11.5262
▁dancer	-11.5262
▁illustration	-11.5263
▁conform	-11.5263
dos	-11.5263
▁bryan	-11.5266
▁invade	-11.5266
oins	-11.5267
▁hawaiian	-11.5268
▁managers	-11.5269
▁mbox	-11.5269
gard	-11.5269
▁rna	-11.5274
▁albeit	-11.5279
▁limestone	-11.528
▁proceeded	-11.528
▁mapping	-11.5281
▁gt	-11.5281
▁russians	-11.5285
▁spectacular	-11.5287
▁firms	-11.5288
▁strips	-11.5288
▁rangers	-11.5289
cin	-11.5291
▁traced	-11.5292
▁altar	-11.5292
▁listen	-11.5292
▁mort	-11.5293
▁neighbors	-11.5293
▁myths	-11.5293
rit	-11.5293
▁nigeria	-11.5294
▁believing	-11.5294
▁miguel	-11.5295
okes	-11.5296
argon	-11.5298
▁mint	-11.5299
▁borg	-11.5301
▁embassy	-11.5302
▁wives	-11.5302
evo	-11.5303
▁bent	-11.5314
▁alma	-11.5315
▁compensation	-11.5317
ige	-11.5317
▁memorable	-11.5317
▁guidelines	-11.5317
▁ras	-11.5317
tine	-11.5318
lab	-11.5324
▁nouns	-11.5324
▁coronation	-11.5324
▁penny	-11.5326
▁guests	-11.5326
dp	-11.5326
▁lat	-11.5326
ural	-11.5329
▁render	-11.5329
▁meditation	-11.5332
▁satellites	-11.5335
▁clouds	-11.5336
▁fails	-11.5338
▁generator	-11.5338
▁explored	-11.5338
▁sussex	-11.5339
▁consonants	-11.5341
▁hum	-11.5341
▁genuine	-11.5341
▁valued	-11.5341
▁fights	-11.5343
▁detected	-11.5346
▁usd	-11.5346
▁intensive	-11.5347
▁elo	-11.5347
▁deposed	-11.5348
▁reduces	-11.5348
uette	-11.5348
▁duc	-11.5348
▁steal	-11.535
▁practically	-11.5351
ges	-11.5352
▁anarchist	-11.5353
▁wesley	-11.5354
▁eden	-11.5354
▁stark	-11.5354
▁saskatchewan	-11.5354
▁unrelated	-11.5354
▁draws	-11.5356
▁heated	-11.5361
▁inheritance	-11.5362
▁angles	-11.5363
run	-11.5364
▁strain	-11.5365
hin	-11.5368
▁schr	-11.5368
▁fathers	-11.5368
▁costume	-11.5371
▁destroyer	-11.5375
▁sym	-11.5376
▁badge	-11.5376
nn	-11.5378
ashi	-11.5378
▁businessman	-11.5378
▁lawsuit	-11.5379
try	-11.5379
▁decisive	-11.5379
tp	-11.5379
▁heath	-11.5381
wo	-11.5384
▁terrestrial	-11.5384
▁digits	-11.5385
▁fix	-11.5393
eu	-11.5395
▁duel	-11.5396
▁bengal	-11.5397
▁graphical	-11.5398
▁reservation	-11.5399
▁grows	-11.5399
▁deployment	-11.5401
▁rivalry	-11.5402
▁fork	-11.5402
▁brush	-11.5404
vel	-11.5406
▁sits	-11.5406
▁linking	-11.5407
▁charm	-11.5408
▁belle	-11.5408
▁gather	-11.5409
cul	-11.5409
ente	-11.5411
▁nam	-11.5411
▁innovation	-11.5414
▁guatemala	-11.5414
▁marathon	-11.5415
▁wagon	-11.5425
▁aims	-11.5426
▁meal	-11.5427
▁willie	-11.5431
▁amino	-11.5433
▁email	-11.5437
aries	-11.5437
▁combustion	-11.5437
▁alpine	-11.5438
ook	-11.5438
▁allan	-11.5441
zel	-11.5443
▁amazing	-11.5445
▁shoes	-11.5447
hof	-11.5449
▁logan	-11.545
▁dirty	-11.545
nu	-11.5451
sho	-11.5454
▁supporter	-11.5456
▁interactions	-11.5457
▁kos	-11.5457
ops	-11.5459
▁sto	-11.546
▁mormon	-11.546
base	-11.5461
▁healing	-11.5461
▁professionals	-11.5462
▁manitoba	-11.5467
▁famine	-11.5469
like	-11.547
▁numerical	-11.5471
▁viewing	-11.5471
gie	-11.5471
ios	-11.5472
zan	-11.5478
▁retro	-11.548
▁pregnancy	-11.5483
▁suffolk	-11.5483
▁gaelic	-11.5484
▁roth	-11.5486
mail	-11.5488
▁salmon	-11.5489
umping	-11.549
uice	-11.5491
▁profession	-11.5491
▁accordingly	-11.5492
▁ceremonies	-11.5498
hole	-11.5502
▁vest	-11.5503
▁dominance	-11.5504
▁astro	-11.5505
▁nano	-11.5505
▁sleeping	-11.5505
▁testimony	-11.5505
▁dictator	-11.5506
▁orlando	-11.5506
tech	-11.5506
▁rhetoric	-11.5507
▁realistic	-11.5507
▁souls	-11.5509
▁literal	-11.5511
▁registration	-11.5513
▁bri	-11.5515
▁heating	-11.5515
▁perfectly	-11.5521
▁indies	-11.5521
▁oo	-11.5522
▁roma	-11.5524
▁slam	-11.5526
phy	-11.5527
▁lung	-11.5528
▁prestigious	-11.5528
▁interpret	-11.553
court	-11.5539
hart	-11.5541
▁grammatical	-11.5544
stown	-11.5544
▁crane	-11.5547
▁hyde	-11.5547
▁adapt	-11.5548
ulf	-11.555
▁practitioners	-11.5553
▁poker	-11.5554
▁reversed	-11.5554
▁lynn	-11.5557
▁busy	-11.5559
▁declare	-11.5559
▁veteran	-11.5559
▁tit	-11.5561
▁corpus	-11.5562
▁specially	-11.5565
▁disco	-11.5566
borough	-11.5567
tle	-11.5567
▁mak	-11.5569
▁wished	-11.5571
▁integers	-11.5572
▁fitzgerald	-11.5574
▁grim	-11.558
▁mut	-11.5584
xi	-11.5586
arm	-11.5586
▁benz	-11.5587
▁clown	-11.559
bank	-11.559
▁syllable	-11.559
▁castile	-11.5592
▁denis	-11.5594
▁burden	-11.5595
aca	-11.5596
▁threw	-11.5598
▁broadcasts	-11.56
▁probe	-11.56
▁zo	-11.5601
▁neighborhoods	-11.5601
wr	-11.5601
▁destinations	-11.5601
▁chad	-11.5602
ages	-11.5603
▁fence	-11.5604
▁sometime	-11.5606
rio	-11.5606
uy	-11.5606
▁preference	-11.5606
▁administrator	-11.5607
▁mare	-11.5608
▁honourable	-11.5608
▁ecclesiastical	-11.561
▁cage	-11.561
▁amp	-11.561
alia	-11.5612
▁mandarin	-11.5613
▁registry	-11.5613
▁imprisonment	-11.5613
▁rhodes	-11.5615
vert	-11.5617
lite	-11.5617
▁dressed	-11.5618
oto	-11.5618
▁ballot	-11.5619
▁heading	-11.5619
▁strongest	-11.5619
▁ic	-11.562
▁yankees	-11.562
▁fertile	-11.562
▁slovakia	-11.5623
osi	-11.5624
▁ecological	-11.5628
▁prompted	-11.5632
▁vernon	-11.5632
▁lex	-11.5636
▁employee	-11.5637
▁neutron	-11.564
▁comprising	-11.5644
▁dorothy	-11.5644
▁absorb	-11.5644
▁beethoven	-11.5651
▁innovative	-11.5651
▁leslie	-11.5652
▁bradley	-11.5652
▁astronaut	-11.5653
ular	-11.5654
▁thorn	-11.5655
uist	-11.5655
▁ellis	-11.5655
▁trumpet	-11.5656
▁lind	-11.5657
oshua	-11.5658
hl	-11.566
▁optional	-11.5661
sion	-11.5661
▁survivors	-11.5666
▁wr	-11.5667
▁flexible	-11.5667
▁isolation	-11.5667
▁frames	-11.5667
▁cairo	-11.5669
▁prevention	-11.5672
▁pulitzer	-11.5675
▁santiago	-11.5675
▁implied	-11.5675
▁discharge	-11.5675
▁turing	-11.5675
▁photographer	-11.5677
▁bohemia	-11.5679
▁cardinals	-11.568
gus	-11.5684
not	-11.5684
vil	-11.5685
▁skiing	-11.5686
▁nodes	-11.5688
▁cooling	-11.5688
▁scripts	-11.5691
▁vis	-11.5693
ustified	-11.5694
▁sensation	-11.5694
▁hitting	-11.5695
▁zeppelin	-11.5698
▁nassau	-11.5698
▁diplomat	-11.57
▁booth	-11.5703
▁installation	-11.5704
▁reynolds	-11.5706
▁confined	-11.5706
▁brisbane	-11.5706
▁indianapolis	-11.5706
▁riots	-11.5706
▁slovenia	-11.5707
▁philippe	-11.571
▁eco	-11.571
▁runway	-11.5713
▁gig	-11.5715
▁coral	-11.5722
stat	-11.5723
▁puzzle	-11.5723
▁merge	-11.5728
▁prominence	-11.5729
▁latvia	-11.5731
rr	-11.5732
▁smell	-11.5732
lc	-11.5735
▁staple	-11.5737
▁ev	-11.5739
▁overthrow	-11.5739
aci	-11.5741
▁computational	-11.5742
▁sec	-11.5743
sz	-11.5745
ind	-11.5747
▁helmet	-11.5747
▁dock	-11.5748
▁reward	-11.5748
▁finishing	-11.575
▁fingers	-11.5751
▁kun	-11.5752
▁prosecution	-11.5752
▁lacking	-11.5753
▁deny	-11.5754
▁specialist	-11.5754
▁altogether	-11.576
▁monsters	-11.5765
▁cromwell	-11.5768
▁boost	-11.5768
iri	-11.5769
▁collectively	-11.5771
▁pascal	-11.5775
ackie	-11.5776
▁dash	-11.5777
▁interact	-11.5778
▁nar	-11.5778
zon	-11.578
▁moments	-11.5781
▁peasants	-11.5781
▁fool	-11.5782
▁fertility	-11.5784
▁henderson	-11.5784
▁necessity	-11.5784
▁privacy	-11.5784
▁vas	-11.5784
▁leagues	-11.5785
lah	-11.5785
▁inform	-11.5786
▁thumb	-11.5789
gas	-11.5794
▁alike	-11.5796
▁harder	-11.5797
▁verbs	-11.5797
▁intervals	-11.5798
▁vulnerable	-11.5799
▁throwing	-11.5801
▁crack	-11.5802
yama	-11.5803
▁tier	-11.5804
▁nominal	-11.5805
▁genetics	-11.5805
▁peers	-11.5807
▁trent	-11.581
▁um	-11.5817
▁sided	-11.5821
▁rotating	-11.5823
▁posted	-11.5825
▁pirate	-11.5826
▁speeches	-11.5831
got	-11.5831
▁mankind	-11.5832
▁bedford	-11.5832
▁designers	-11.5832
▁pitcher	-11.5833
ators	-11.5834
▁reads	-11.5835
hel	-11.5835
▁traces	-11.5836
gio	-11.5836
meter	-11.5837
▁ieee	-11.5839
▁lions	-11.584
wn	-11.5842
▁mongolia	-11.5845
▁sustained	-11.5846
▁lime	-11.5846
roy	-11.5847
▁lotus	-11.5848
▁tibet	-11.585
▁carson	-11.5853
lop	-11.5855
▁cecil	-11.5856
ournalism	-11.5858
▁arrives	-11.5859
▁bala	-11.5859
▁rivals	-11.5861
space	-11.5863
▁verses	-11.5865
▁specifications	-11.5865
▁tonight	-11.5871
▁merchants	-11.5871
ered	-11.5871
▁marcel	-11.5872
▁hotels	-11.5875
▁deadly	-11.5877
nen	-11.5879
▁armenia	-11.588
▁abd	-11.5881
tom	-11.5881
▁privately	-11.5882
▁mig	-11.5885
▁timothy	-11.5886
▁investigate	-11.5887
▁gum	-11.5889
▁morality	-11.5891
een	-11.5893
▁contributing	-11.5894
▁taliban	-11.5894
▁caroline	-11.5895
▁radioactive	-11.5903
▁esc	-11.5903
▁crosses	-11.5906
▁sitcom	-11.5906
▁admission	-11.5907
▁mul	-11.5907
▁pile	-11.5909
▁propulsion	-11.591
▁tolerance	-11.591
lit	-11.5914
▁suited	-11.5915
▁compressed	-11.5915
▁flavor	-11.5915
▁cra	-11.5917
▁sexuality	-11.5918
▁boulevard	-11.5918
▁storyline	-11.5918
page	-11.5919
▁delhi	-11.592
▁definite	-11.592
ohnston	-11.592
▁realism	-11.5925
▁facilitate	-11.5926
uth	-11.5927
▁emblem	-11.5927
▁corr	-11.5931
▁robots	-11.5931
▁talmud	-11.5932
▁cel	-11.5934
▁coastline	-11.5935
ering	-11.5936
▁yang	-11.5936
bill	-11.5937
▁shaft	-11.5938
lea	-11.5938
▁acceleration	-11.5942
yon	-11.5944
▁lam	-11.5951
ever	-11.5952
bie	-11.5953
▁occupy	-11.5953
▁celestial	-11.5957
▁shapes	-11.5958
▁holder	-11.5962
▁lava	-11.5962
lyn	-11.5963
▁fantastic	-11.5965
▁fleming	-11.5965
▁madonna	-11.5966
▁normandy	-11.5966
▁bout	-11.5967
▁elves	-11.5969
ily	-11.597
▁sas	-11.5973
▁ambitious	-11.5973
▁deceased	-11.5973
▁prospect	-11.5978
▁spur	-11.5979
▁uc	-11.598
▁ln	-11.5981
▁auxiliary	-11.5981
▁mccarthy	-11.5981
▁kerry	-11.5984
▁container	-11.5984
▁davies	-11.599
▁skating	-11.5991
▁drake	-11.5991
▁aztec	-11.5992
▁wilderness	-11.5998
▁flagship	-11.6
▁roland	-11.6002
rant	-11.6002
▁gale	-11.6003
▁fairy	-11.6005
▁selective	-11.6007
▁surrendered	-11.6009
▁factions	-11.6011
▁preparing	-11.6013
▁carriage	-11.6013
▁sheriff	-11.6013
▁exposition	-11.6014
▁mythological	-11.6014
▁cod	-11.6014
▁planetary	-11.6016
▁threatening	-11.6018
▁excluded	-11.6018
▁dy	-11.6021
▁decides	-11.6024
▁pointing	-11.6025
▁worm	-11.6026
▁decree	-11.6027
▁cola	-11.6028
▁ladies	-11.603
▁gaming	-11.603
▁shells	-11.6031
▁athletes	-11.6033
ison	-11.6035
▁soprano	-11.6037
▁oslo	-11.6039
▁rouge	-11.604
▁oc	-11.6042
sol	-11.6043
▁scientology	-11.6046
▁fraser	-11.6046
att	-11.6049
▁indonesian	-11.6049
ego	-11.605
▁swords	-11.6052
▁eras	-11.6053
▁frog	-11.6053
▁rifles	-11.6057
cott	-11.6058
ista	-11.6059
nom	-11.6059
▁bergen	-11.606
▁scrap	-11.606
▁universally	-11.6061
▁shores	-11.6061
▁czechoslovakia	-11.6061
▁topological	-11.6064
▁ek	-11.6064
▁boris	-11.6065
▁vic	-11.6066
▁solved	-11.6066
fs	-11.6069
▁voluntary	-11.607
▁resurrection	-11.607
▁metre	-11.6073
▁investigations	-11.6074
▁communion	-11.6079
▁reprinted	-11.6079
mir	-11.6081
▁edison	-11.6087
lings	-11.6091
▁escort	-11.6092
ecture	-11.6097
▁spam	-11.6098
▁knock	-11.6098
▁opus	-11.6098
▁fc	-11.6101
▁celebrities	-11.6102
▁govern	-11.6103
▁breach	-11.6103
▁rho	-11.6104
▁ears	-11.6106
bro	-11.6106
▁slovak	-11.6107
▁congregation	-11.6108
▁operas	-11.6108
▁tomorrow	-11.611
▁mps	-11.6111
▁guess	-11.6111
▁marketed	-11.6113
tone	-11.6115
▁geometric	-11.6117
▁archaeology	-11.6118
▁choosing	-11.6118
▁furniture	-11.6118
▁macdonald	-11.6118
▁ally	-11.6118
▁lovers	-11.6124
▁accidentally	-11.6124
▁griffith	-11.6126
oyce	-11.6131
▁voyager	-11.6131
▁kingston	-11.6132
ester	-11.6133
▁sheffield	-11.6134
▁georgian	-11.6135
▁treason	-11.6135
▁tru	-11.6135
▁devised	-11.6136
▁resumed	-11.6138
▁boo	-11.6139
▁consumed	-11.6139
▁keeps	-11.614
▁casino	-11.6141
cur	-11.6141
▁coding	-11.6145
hua	-11.6146
▁extensions	-11.6146
▁inspector	-11.6148
▁everywhere	-11.6151
hy	-11.6151
▁abandon	-11.6152
▁ideals	-11.6152
rock	-11.6153
▁puts	-11.6153
according	-11.616
▁analogous	-11.6162
works	-11.6164
sberg	-11.6164
▁odds	-11.6165
▁parking	-11.6167
tho	-11.6169
gun	-11.617
▁commanders	-11.6172
fall	-11.6175
▁thou	-11.6176
amba	-11.6177
▁hanging	-11.6177
▁timing	-11.6183
▁babylonian	-11.6185
▁feminist	-11.6186
▁claudius	-11.6191
▁vapor	-11.6192
▁deities	-11.6193
▁volcano	-11.6193
▁forums	-11.6194
mia	-11.6197
▁hospitals	-11.6197
▁approximation	-11.62
uba	-11.6201
▁sends	-11.6202
long	-11.6202
▁shelter	-11.6204
▁cyber	-11.6204
rak	-11.6205
▁handful	-11.6206
▁perth	-11.6207
▁prosperity	-11.6208
▁narrator	-11.6209
▁focusing	-11.6211
▁goose	-11.6216
▁makers	-11.6218
▁descendant	-11.6222
tric	-11.6226
▁bare	-11.6226
▁definitive	-11.6227
▁barely	-11.623
▁ions	-11.6232
▁savoy	-11.6232
▁flemish	-11.6232
▁semiconductor	-11.6232
▁rig	-11.6233
▁flux	-11.6236
▁charleston	-11.6236
arat	-11.6237
▁collector	-11.6238
▁cb	-11.6239
▁azerbai	-11.624
▁synod	-11.6241
▁vista	-11.6243
▁midway	-11.6245
▁correspond	-11.6246
omer	-11.6247
▁scandinavian	-11.6248
onne	-11.6249
▁handled	-11.6256
▁stefan	-11.6257
▁portrayal	-11.626
uestioned	-11.6261
▁preston	-11.6262
▁dissolution	-11.6265
▁deficit	-11.6265
▁organize	-11.6266
▁knee	-11.6267
igh	-11.627
▁counsel	-11.6272
▁sampling	-11.6273
▁gut	-11.6273
pal	-11.6274
▁marking	-11.6275
mine	-11.6277
cio	-11.6277
▁feudal	-11.6278
▁paths	-11.6279
▁gb	-11.6281
▁mold	-11.6283
▁heavier	-11.6284
iga	-11.6284
▁hardly	-11.6287
▁hubbard	-11.629
▁arabian	-11.6292
▁profits	-11.6292
▁findings	-11.6296
▁nun	-11.6299
▁grants	-11.6303
▁afford	-11.6303
▁bankruptcy	-11.6306
anna	-11.6309
imo	-11.6309
▁leeds	-11.631
▁plo	-11.6311
nel	-11.6312
script	-11.6312
▁targeted	-11.6314
▁advisor	-11.6314
▁baghdad	-11.6314
▁devon	-11.6314
▁racism	-11.6315
▁kabul	-11.6317
▁economists	-11.6317
lip	-11.6318
▁completing	-11.6323
▁microwave	-11.6323
▁breeds	-11.6324
urus	-11.6324
▁kol	-11.6324
▁whereby	-11.6325
▁trails	-11.6326
▁murders	-11.6328
▁truman	-11.6328
▁stuff	-11.6329
▁moor	-11.6329
▁treatise	-11.6331
▁abundant	-11.6331
▁calcium	-11.6331
boro	-11.6334
▁cin	-11.6337
▁sv	-11.6337
▁breathing	-11.6338
▁coloured	-11.634
omi	-11.6342
▁spots	-11.6342
▁secrets	-11.6343
cor	-11.6343
▁dio	-11.6344
▁authentic	-11.6346
▁effectiveness	-11.6346
hat	-11.6347
▁agenda	-11.6349
▁martha	-11.6351
▁np	-11.6351
▁infected	-11.6352
▁crashed	-11.6352
▁seeks	-11.6353
▁plantation	-11.6354
▁venues	-11.6355
rz	-11.6355
▁mozart	-11.6356
▁billed	-11.6357
spir	-11.636
▁screw	-11.6361
ssa	-11.6363
▁rein	-11.6365
▁dozens	-11.6365
oys	-11.6366
uess	-11.6368
lach	-11.6368
ching	-11.6371
▁freight	-11.6371
▁fern	-11.6372
ulus	-11.6373
▁belarus	-11.6373
▁performs	-11.6375
▁pension	-11.6375
▁flies	-11.6376
cop	-11.6377
▁texture	-11.6378
erman	-11.638
▁reflecting	-11.638
▁convey	-11.638
▁resemblance	-11.6381
▁corridor	-11.6381
▁danube	-11.6381
▁fiscal	-11.6381
▁denote	-11.6382
▁simpler	-11.6383
iff	-11.6383
▁dover	-11.6388
▁fog	-11.6388
▁enterprises	-11.6389
osef	-11.639
▁coupled	-11.6391
▁canadians	-11.6394
int	-11.6396
▁milwaukee	-11.6397
▁feud	-11.6398
▁satire	-11.6398
▁taxi	-11.6398
▁countryside	-11.64
▁hack	-11.64
▁lemon	-11.6404
▁antarctic	-11.6405
▁aurora	-11.6405
▁gloucester	-11.6406
▁inserted	-11.6406
▁thesis	-11.6406
▁sai	-11.6409
▁photographic	-11.6411
avi	-11.6412
▁paved	-11.6416
▁conf	-11.6416
▁ale	-11.6418
▁throat	-11.642
▁xxx	-11.642
▁critically	-11.642
▁temperate	-11.6423
▁tuning	-11.6423
face	-11.6427
tas	-11.6429
▁peripheral	-11.6431
▁stomach	-11.6431
▁tide	-11.6431
▁breakdown	-11.6431
▁rumors	-11.6434
▁catalog	-11.6436
▁perl	-11.6437
▁tooth	-11.6437
fire	-11.6437
▁emp	-11.6438
▁secretly	-11.644
kal	-11.644
▁xiii	-11.644
▁concentrate	-11.644
pop	-11.6441
▁mighty	-11.6442
▁attitudes	-11.6445
▁waterloo	-11.6445
dell	-11.6445
▁spec	-11.6447
▁protagonist	-11.6448
▁gundam	-11.6448
▁addiction	-11.6449
lli	-11.6449
hol	-11.645
▁laden	-11.6453
▁cartoonist	-11.6454
▁maybe	-11.6456
vs	-11.6457
▁praised	-11.6458
▁cork	-11.6458
▁patents	-11.6458
etz	-11.6459
ournals	-11.646
▁robertson	-11.6461
chy	-11.6464
▁mikhail	-11.6464
▁scratch	-11.6465
▁endangered	-11.6466
isch	-11.6467
▁gorge	-11.647
izer	-11.647
▁discoveries	-11.6474
▁blessed	-11.6477
▁explore	-11.6477
▁phases	-11.6478
▁suspect	-11.6479
▁sectors	-11.6481
▁deutsche	-11.6481
▁blame	-11.649
▁computation	-11.6493
▁privileges	-11.6498
▁vil	-11.6498
iber	-11.6498
▁chiefs	-11.6498
udo	-11.6499
▁chiang	-11.6501
▁tailed	-11.6503
▁genera	-11.6504
▁criticised	-11.6509
▁routine	-11.651
▁differently	-11.6511
▁dee	-11.6512
▁successes	-11.6514
▁comfort	-11.6515
▁uganda	-11.6515
▁risks	-11.6515
▁debates	-11.6516
▁armored	-11.6516
▁turbine	-11.6518
▁corrupt	-11.652
kie	-11.6521
nier	-11.6523
▁recipients	-11.6523
▁cologne	-11.6523
▁burlington	-11.6523
▁breakfast	-11.6523
▁solving	-11.6523
▁pinyin	-11.6524
▁yoga	-11.6524
▁nobody	-11.6526
▁vie	-11.6526
▁buying	-11.6527
▁aliens	-11.6527
▁servants	-11.6528
▁weber	-11.6529
rd	-11.653
stead	-11.6532
▁raven	-11.6534
wen	-11.6539
▁finn	-11.654
▁titan	-11.6542
▁artifacts	-11.6544
▁gin	-11.6547
▁anthropology	-11.6549
▁viewpoint	-11.6551
▁dow	-11.6553
▁af	-11.6555
▁protecting	-11.6555
ml	-11.6555
ridge	-11.6557
▁interim	-11.6558
▁cubic	-11.6559
▁implications	-11.6562
▁bolt	-11.6565
▁subordinate	-11.6565
▁slip	-11.6567
▁counterpart	-11.6567
▁minorities	-11.6568
▁forget	-11.6568
▁fernando	-11.657
▁grip	-11.657
▁syracuse	-11.6574
ult	-11.6574
▁dear	-11.6576
▁flint	-11.6576
▁shortened	-11.6577
▁georges	-11.6578
▁fees	-11.6579
▁ah	-11.6581
▁terrible	-11.6582
▁brave	-11.6584
▁personalities	-11.6585
▁bolivia	-11.6588
assa	-11.6589
▁arsenal	-11.6591
▁genome	-11.6592
▁carved	-11.6593
dt	-11.6593
▁lucky	-11.6596
▁mcg	-11.6596
ink	-11.6598
▁copied	-11.66
▁conducting	-11.66
▁alert	-11.6605
ih	-11.6606
▁sus	-11.6608
▁bab	-11.6609
▁enhance	-11.6611
▁amphi	-11.6611
▁lent	-11.6613
▁ensemble	-11.6618
▁vectors	-11.6621
▁pbs	-11.6624
▁donated	-11.6624
▁amber	-11.6625
▁apparatus	-11.6625
▁halifax	-11.6625
▁universit	-11.6625
▁lucius	-11.6626
▁ven	-11.663
▁balanced	-11.6631
▁bourbon	-11.6634
erie	-11.6635
▁certificate	-11.6635
▁engagement	-11.6636
▁tenor	-11.6638
▁cherokee	-11.6642
▁unconscious	-11.6642
▁rudolf	-11.6642
▁kyoto	-11.6642
▁slope	-11.6642
▁resistant	-11.6643
lem	-11.6643
▁esperanto	-11.6644
▁greenland	-11.6644
▁sher	-11.6644
wy	-11.665
▁aberdeen	-11.6651
▁adelaide	-11.6651
asper	-11.6651
▁cultivation	-11.6651
▁decreased	-11.6651
▁fold	-11.6654
▁betty	-11.6655
▁dh	-11.6656
▁ole	-11.6659
agi	-11.666
▁constituent	-11.6661
▁drawings	-11.6661
▁bloc	-11.6661
▁mortal	-11.6662
▁blocked	-11.6662
▁dive	-11.6663
aa	-11.6665
▁depicting	-11.6666
lag	-11.6666
▁dances	-11.6667
▁trapped	-11.6668
▁cornell	-11.667
ight	-11.6671
▁architects	-11.6678
▁messenger	-11.6678
▁tigers	-11.668
▁abbot	-11.6683
▁imagination	-11.6685
▁emergence	-11.6685
▁wholly	-11.6685
▁milli	-11.669
▁ferr	-11.669
▁transmit	-11.6692
▁programmer	-11.6693
▁distortion	-11.6694
▁broader	-11.6697
▁feat	-11.6698
ike	-11.6701
▁cran	-11.6701
▁guan	-11.6704
▁stat	-11.6704
▁tran	-11.6704
▁libya	-11.6705
ify	-11.6705
put	-11.6711
▁anthology	-11.6711
▁feedback	-11.6711
▁pastor	-11.6713
ode	-11.6717
▁immortal	-11.6717
▁ingredients	-11.6717
▁knots	-11.6719
effrey	-11.6719
▁sept	-11.672
▁flu	-11.672
▁sexually	-11.672
▁wade	-11.672
iformes	-11.6722
▁printer	-11.6725
▁decorated	-11.6729
▁neill	-11.6729
▁cohen	-11.6731
▁hom	-11.6733
▁venue	-11.6734
udah	-11.6734
▁genocide	-11.6736
▁friction	-11.6736
▁motivated	-11.6738
rian	-11.6743
▁mori	-11.6744
▁newman	-11.6745
▁tyler	-11.6746
▁confirm	-11.6747
▁richardson	-11.6747
▁gru	-11.6747
▁polk	-11.6748
▁rogue	-11.6749
▁tensions	-11.6749
▁creed	-11.6751
▁contexts	-11.6753
▁explaining	-11.6754
▁thomson	-11.6754
▁histories	-11.6762
▁sympathetic	-11.6762
▁mistress	-11.6762
▁cli	-11.6764
▁mara	-11.6764
▁missed	-11.6765
▁carnegie	-11.6771
▁cove	-11.6771
▁blend	-11.6773
shin	-11.6776
▁aluminium	-11.678
▁commuter	-11.678
▁beaten	-11.6783
▁caves	-11.6787
▁derive	-11.6787
▁troll	-11.679
▁camden	-11.679
▁wai	-11.6794
▁remake	-11.6797
its	-11.6798
▁poe	-11.6798
▁cnn	-11.6798
▁airborne	-11.6798
unt	-11.6799
▁clara	-11.6802
▁valleys	-11.6803
▁levi	-11.6804
▁bandwidth	-11.6805
▁mcdonald	-11.6805
rac	-11.6806
pel	-11.681
aco	-11.681
▁courage	-11.6811
▁void	-11.6813
aut	-11.6814
tig	-11.6815
▁peel	-11.6815
▁investors	-11.6817
▁wonderful	-11.6817
▁puppet	-11.6817
▁choices	-11.6818
inn	-11.682
▁sailors	-11.6821
▁taxation	-11.6821
▁recon	-11.6821
▁brock	-11.6821
▁programmers	-11.6823
oga	-11.6824
ulation	-11.6826
▁aesthetic	-11.6826
▁exiled	-11.6835
▁sake	-11.6836
▁ecuador	-11.684
▁randolph	-11.684
▁tribune	-11.6841
▁webb	-11.6841
▁cocaine	-11.6841
▁accession	-11.6842
tics	-11.6842
oper	-11.6843
▁calculations	-11.6844
▁continuation	-11.6849
▁paradigm	-11.6849
▁unesco	-11.685
▁demolished	-11.6851
▁rolls	-11.6853
nica	-11.6854
▁coca	-11.6855
ott	-11.6858
arian	-11.6861
▁citing	-11.6861
▁cort	-11.6862
ustification	-11.6862
▁discontinued	-11.6863
▁pressed	-11.6865
▁flank	-11.6865
▁lisp	-11.6865
▁aunt	-11.6865
▁participating	-11.6866
▁transported	-11.6867
▁calm	-11.6867
▁peaks	-11.6868
▁execute	-11.6868
▁roses	-11.6878
▁augusta	-11.6878
▁ptolemy	-11.6884
▁sandwich	-11.6884
▁lil	-11.6887
▁convenient	-11.6887
▁hag	-11.6891
▁unpopular	-11.6892
ennifer	-11.6893
▁mortality	-11.6894
▁sage	-11.6895
▁nurse	-11.6901
table	-11.6903
▁deb	-11.6903
shu	-11.6904
▁suggestion	-11.6908
▁regulated	-11.6908
▁serpent	-11.691
▁pip	-11.6913
▁reprint	-11.6913
▁simulation	-11.6915
sur	-11.6916
▁colleagues	-11.6917
mun	-11.6919
▁integrity	-11.6919
▁batteries	-11.692
▁stake	-11.6923
▁bugs	-11.6924
▁imply	-11.6924
▁reply	-11.6927
▁formulation	-11.6932
▁landmarks	-11.6934
▁gram	-11.6939
▁troop	-11.6939
▁couldn	-11.6944
▁terminus	-11.6944
▁modulation	-11.6946
▁exotic	-11.6946
▁housed	-11.6947
▁lad	-11.6947
▁surplus	-11.6954
▁displacement	-11.6954
▁canonical	-11.6955
media	-11.6959
▁redirect	-11.6959
anet	-11.696
▁hr	-11.6961
▁reconnaissance	-11.6963
▁humour	-11.6963
stand	-11.6966
▁bean	-11.6967
▁chromosome	-11.6967
lant	-11.6967
nz	-11.697
▁ratified	-11.6971
▁brandenburg	-11.6972
born	-11.6973
▁grat	-11.6974
▁cn	-11.6977
▁dried	-11.6978
▁flown	-11.698
▁stuck	-11.6981
▁episcopal	-11.6982
▁revenues	-11.6984
▁immigrant	-11.6985
▁ling	-11.6987
▁mystic	-11.6989
▁carnival	-11.6989
▁odyssey	-11.6989
▁wimbledon	-11.6989
▁lenses	-11.6989
▁censorship	-11.699
▁clusters	-11.699
▁safely	-11.6991
bia	-11.6993
▁fierce	-11.6993
▁terrorists	-11.6994
▁incorporate	-11.6996
▁suffix	-11.6997
uber	-11.6998
▁purchasing	-11.6998
▁proud	-11.6999
etti	-11.6999
▁cabin	-11.7
lg	-11.7001
▁bac	-11.7004
responsibilities	-11.7007
▁balloon	-11.7013
▁expectations	-11.7014
▁similarity	-11.7015
▁absolutely	-11.7015
▁api	-11.7019
▁guerrilla	-11.7021
▁batter	-11.7023
▁macedonian	-11.7024
num	-11.7029
▁pour	-11.7033
▁verbal	-11.7033
▁bred	-11.7033
▁prophecy	-11.7034
▁suspicion	-11.7034
▁pres	-11.7035
wall	-11.7036
▁roller	-11.7037
▁kenny	-11.7038
▁drill	-11.7039
comb	-11.704
▁worcester	-11.7042
▁reunion	-11.7043
▁nut	-11.7044
▁cobb	-11.7045
serv	-11.7046
erd	-11.7047
keeper	-11.7049
gren	-11.705
ssen	-11.705
▁convince	-11.7053
▁ov	-11.7054
▁boxes	-11.7056
udgement	-11.706
▁mccartney	-11.706
▁tribunal	-11.706
▁temporal	-11.7061
tch	-11.7062
▁ref	-11.7062
▁contacts	-11.7064
▁ping	-11.7065
nam	-11.7068
▁octave	-11.707
▁pluto	-11.7072
▁contested	-11.7073
▁pap	-11.7074
▁toured	-11.7075
evi	-11.7075
▁medals	-11.7076
▁trivial	-11.7076
▁empirical	-11.7078
▁myself	-11.7078
▁biographical	-11.7078
▁spotted	-11.7079
▁mercy	-11.7081
▁roe	-11.7082
▁speculated	-11.7082
▁dishes	-11.7085
▁riders	-11.7086
▁ped	-11.7088
▁candy	-11.709
▁honours	-11.7093
tail	-11.7093
▁noticed	-11.7095
▁zhang	-11.7097
▁bailey	-11.7097
▁moth	-11.71
▁float	-11.7102
▁assert	-11.7103
polis	-11.7103
▁helena	-11.7105
▁warwick	-11.7107
▁calculate	-11.7107
▁validity	-11.7108
ucci	-11.7108
rated	-11.7112
iac	-11.7113
gam	-11.7114
▁unorganized	-11.7114
▁fel	-11.7117
▁zimbabwe	-11.7123
▁sabbath	-11.7123
▁imaging	-11.7123
▁isles	-11.7126
▁conceptual	-11.7127
cp	-11.7129
▁mercer	-11.7131
▁underwent	-11.7132
▁niagara	-11.7132
▁whip	-11.7132
▁consolidated	-11.7134
▁wedge	-11.7135
thi	-11.7136
▁armoured	-11.7136
▁shirt	-11.7142
▁sizes	-11.7147
▁bytes	-11.7147
trop	-11.7149
▁insight	-11.7149
▁rapids	-11.7149
▁advised	-11.7154
roma	-11.7154
▁attribute	-11.7158
▁contemporaries	-11.7159
▁tunes	-11.716
▁seas	-11.7162
▁doug	-11.7163
▁leak	-11.7164
▁collar	-11.7164
▁commanding	-11.7164
pad	-11.7165
lp	-11.7166
rim	-11.7168
▁rapper	-11.7168
▁blacks	-11.7171
▁doctrines	-11.7171
▁bod	-11.7172
▁ost	-11.7173
egan	-11.7176
▁dictatorship	-11.7177
▁funny	-11.7178
▁lug	-11.7179
rov	-11.718
▁transaction	-11.7183
▁ellen	-11.7184
urist	-11.7186
▁encyclop	-11.7186
▁modifications	-11.7186
▁lanes	-11.7188
▁implementations	-11.7192
▁rachel	-11.7193
▁leipzig	-11.7195
▁frozen	-11.7195
▁retire	-11.7196
▁lacked	-11.7196
▁scr	-11.7199
▁sins	-11.7204
uarterback	-11.7205
otic	-11.7205
▁polynesian	-11.7207
▁elk	-11.7209
▁airbus	-11.721
▁wrestler	-11.721
dor	-11.7212
▁gibraltar	-11.7213
▁erosion	-11.7213
▁infrared	-11.7213
▁winchester	-11.7213
▁assyrian	-11.7214
fan	-11.7216
▁filling	-11.7218
▁cartridge	-11.722
▁abdul	-11.7221
ille	-11.7222
▁chronology	-11.7222
▁luxury	-11.7222
▁sebastian	-11.7222
▁protective	-11.7224
▁ml	-11.7224
▁itv	-11.7225
▁arg	-11.7226
▁persuaded	-11.7227
vier	-11.723
▁offspring	-11.7231
▁slim	-11.7232
umps	-11.7233
▁impressed	-11.7234
▁tram	-11.7235
▁bowie	-11.7235
▁loses	-11.7238
▁humphrey	-11.724
▁motorway	-11.7241
eller	-11.7243
▁dove	-11.7244
▁neal	-11.7244
▁archipelago	-11.7249
▁rus	-11.7251
▁relates	-11.7251
hon	-11.7252
▁adaptations	-11.7253
▁sparta	-11.7256
▁axiom	-11.7256
▁moh	-11.7257
▁criminals	-11.7258
rel	-11.726
▁sue	-11.7261
▁upset	-11.7261
▁gifts	-11.7262
arra	-11.7264
▁hymn	-11.7265
▁illusion	-11.7265
▁trinidad	-11.7267
▁vegetation	-11.7267
cre	-11.7268
▁streak	-11.7268
▁cruel	-11.7269
▁tallest	-11.7269
uno	-11.7269
▁derby	-11.7271
▁deeper	-11.7273
▁napoleonic	-11.7274
▁soviets	-11.7275
▁sued	-11.7275
▁freud	-11.7276
▁tricks	-11.7276
▁arlington	-11.7276
▁oversee	-11.7283
▁flooding	-11.7284
▁conan	-11.7285
▁diamonds	-11.7285
▁eisenhower	-11.7285
▁prominently	-11.7286
▁pond	-11.7288
gri	-11.729
▁economically	-11.729
▁bail	-11.7291
▁px	-11.7291
nin	-11.7292
▁induction	-11.7295
▁pornography	-11.7295
isse	-11.7295
▁inherent	-11.7298
cut	-11.7302
▁commune	-11.7303
▁prevalent	-11.7304
▁discovers	-11.7304
▁cassette	-11.7306
▁dragons	-11.731
rey	-11.7311
▁madagascar	-11.7311
▁xp	-11.7312
▁galaxies	-11.7313
▁salisbury	-11.7313
▁seasonal	-11.7315
▁anyway	-11.7316
▁hung	-11.7317
▁profound	-11.7318
▁heroic	-11.7319
▁rounded	-11.7322
▁oppose	-11.7323
▁burnt	-11.7323
cht	-11.7324
▁prone	-11.7325
▁popularized	-11.7327
hab	-11.7328
▁pulp	-11.733
▁ave	-11.733
▁swept	-11.7331
▁luna	-11.7331
▁dairy	-11.7332
tc	-11.7334
▁php	-11.7334
▁crude	-11.7335
▁pon	-11.7337
uasi	-11.7338
▁collision	-11.7339
▁versa	-11.734
▁allegiance	-11.734
▁entropy	-11.734
▁proprietary	-11.734
▁simplest	-11.7341
▁sank	-11.7341
▁avon	-11.7349
▁reigned	-11.735
▁bark	-11.735
▁blanc	-11.7353
▁groove	-11.7353
bil	-11.7354
pis	-11.7356
▁hus	-11.7357
▁happiness	-11.7358
▁pork	-11.7359
▁ncaa	-11.7359
bon	-11.7359
rach	-11.7359
iah	-11.7364
▁lf	-11.7368
▁kidney	-11.7368
▁tensor	-11.737
vocation	-11.737
▁scouts	-11.7374
▁glucose	-11.7377
▁armament	-11.7377
▁pioneers	-11.7377
▁vulcan	-11.7377
▁clarence	-11.7377
▁packet	-11.7379
▁raiders	-11.7384
ici	-11.7386
hoe	-11.7387
tie	-11.7388
▁transactions	-11.7389
▁griffin	-11.7391
col	-11.7392
▁bubble	-11.7395
▁replied	-11.7395
▁psychedelic	-11.7396
▁loading	-11.7396
▁transcription	-11.7396
▁locked	-11.74
▁labeled	-11.7401
▁len	-11.7401
▁interchange	-11.7403
vik	-11.7404
▁alfonso	-11.7404
▁gould	-11.7405
▁cheaper	-11.7406
▁immense	-11.7408
▁crush	-11.741
▁cons	-11.7413
▁sunk	-11.7415
▁filmmaker	-11.7416
zio	-11.7417
▁pd	-11.7417
▁trucks	-11.7418
phys	-11.7419
▁theft	-11.7421
▁needle	-11.7421
▁arr	-11.7422
▁manifest	-11.7423
▁feminine	-11.7423
▁countess	-11.7426
▁polo	-11.7428
▁underwater	-11.743
▁hail	-11.7431
▁filipino	-11.7432
▁correction	-11.7433
▁dominate	-11.7434
▁shoe	-11.7434
▁poster	-11.7436
▁brun	-11.7436
▁interpreter	-11.7438
▁flora	-11.7439
esty	-11.744
▁cond	-11.7441
▁tate	-11.7441
▁rotor	-11.7443
▁gon	-11.7445
▁recalled	-11.7445
▁downward	-11.7446
▁trunk	-11.7447
▁parachute	-11.7451
▁tremendous	-11.7451
▁beau	-11.7452
▁ignore	-11.7453
udy	-11.7457
▁dealer	-11.7457
▁clarinet	-11.746
uter	-11.746
▁angular	-11.7461
▁dropping	-11.7461
▁cron	-11.7463
arrow	-11.7465
making	-11.747
dl	-11.7471
▁dag	-11.7473
nick	-11.7473
▁pawn	-11.7474
▁achieving	-11.7478
▁prolific	-11.7478
▁sten	-11.7482
▁debuted	-11.7486
▁insult	-11.7487
▁eleanor	-11.7488
▁protestants	-11.7492
▁curves	-11.7493
▁gameplay	-11.7493
thy	-11.7495
rze	-11.7497
bh	-11.7503
▁explorers	-11.7506
▁discussing	-11.7507
▁helm	-11.7508
▁upgraded	-11.7512
▁buffy	-11.7512
▁brands	-11.7513
erson	-11.7514
non	-11.7515
▁rc	-11.7515
▁occurrence	-11.7516
▁declares	-11.7516
dam	-11.7516
▁listening	-11.7517
▁imagine	-11.7518
▁obtaining	-11.752
▁cricketer	-11.7524
▁thirds	-11.7524
▁invitation	-11.7525
▁remarks	-11.7525
▁providers	-11.7526
phone	-11.7527
▁accusations	-11.7528
▁penis	-11.7528
▁sant	-11.7529
▁socially	-11.753
pet	-11.753
▁unre	-11.7532
▁dim	-11.7532
bul	-11.7533
▁hiding	-11.7533
ace	-11.7533
ald	-11.7536
rem	-11.7539
▁rica	-11.7542
▁desirable	-11.7544
▁exodus	-11.7544
▁nationwide	-11.7544
▁survivor	-11.7544
▁surrey	-11.7544
▁xx	-11.7544
▁tears	-11.7546
▁icelandic	-11.7547
▁derivatives	-11.7549
rag	-11.7551
shima	-11.7553
▁nikola	-11.7553
wed	-11.7556
▁thi	-11.7557
ril	-11.7558
▁nag	-11.7558
tern	-11.7559
grad	-11.7559
▁dose	-11.7559
▁delegates	-11.756
▁tex	-11.7561
▁gasoline	-11.7562
▁bonaparte	-11.7562
▁dip	-11.7563
▁payments	-11.7564
cious	-11.7567
holm	-11.757
▁hayes	-11.757
▁crescent	-11.7571
▁camel	-11.7571
▁fond	-11.7573
▁attachment	-11.7573
▁refuse	-11.7575
▁contradiction	-11.7575
▁ideological	-11.7581
▁ink	-11.7581
▁interfere	-11.7581
▁notre	-11.7582
sti	-11.7582
▁champ	-11.7585
▁scholarly	-11.7586
but	-11.7587
▁woo	-11.7587
▁finch	-11.7589
▁abolition	-11.7589
▁belfast	-11.759
▁locomotive	-11.7591
▁lengthy	-11.7592
▁sav	-11.7593
▁earning	-11.7599
orge	-11.7599
▁domination	-11.76
▁elm	-11.76
▁miracle	-11.7601
▁rituals	-11.7602
▁bench	-11.7604
▁matching	-11.7607
▁clash	-11.7609
opp	-11.7609
ture	-11.7609
▁famed	-11.7611
▁scripture	-11.7612
▁wander	-11.7617
▁popularly	-11.7618
▁afl	-11.7619
▁sanctuary	-11.7619
▁fritz	-11.762
▁confrontation	-11.7621
chan	-11.7624
▁battleships	-11.7624
▁demanding	-11.7625
▁inability	-11.7629
▁loving	-11.763
▁eighteen	-11.7631
▁dividing	-11.7637
bm	-11.7639
▁elf	-11.764
▁treatments	-11.764
dir	-11.7641
ume	-11.7645
▁cbc	-11.7646
▁crystals	-11.7646
▁enzyme	-11.7648
▁vegetable	-11.7648
azi	-11.7651
▁ruby	-11.7651
hawk	-11.7652
▁inscriptions	-11.7656
▁certified	-11.7656
▁detector	-11.7656
▁governance	-11.7657
▁sweat	-11.7658
▁martyr	-11.7663
▁nepal	-11.7666
▁alternatives	-11.7666
▁gambling	-11.7666
lim	-11.7669
pus	-11.7673
▁marched	-11.7674
hor	-11.7674
oro	-11.7676
▁yields	-11.768
rox	-11.7681
▁employer	-11.7684
▁rats	-11.7685
▁hume	-11.7685
▁motorcycle	-11.7686
▁drops	-11.7687
▁mystical	-11.7687
most	-11.7688
▁pupils	-11.7694
▁deficiency	-11.7694
▁cornelius	-11.7694
▁everybody	-11.7696
▁rite	-11.7696
▁bundle	-11.7697
ality	-11.7697
▁chr	-11.7697
▁mai	-11.7701
ingen	-11.7703
▁clyde	-11.7704
▁replica	-11.7709
▁eagles	-11.771
▁tampa	-11.771
sche	-11.771
▁acclaim	-11.7712
▁bluff	-11.7714
▁hoover	-11.7714
▁stems	-11.7715
▁reid	-11.7717
▁aging	-11.7718
▁moss	-11.7719
▁commentators	-11.772
▁proceed	-11.7721
▁pizza	-11.7724
▁shipped	-11.7725
beck	-11.7726
▁tis	-11.7727
front	-11.7728
▁hesse	-11.7729
▁tara	-11.7729
▁denoted	-11.7731
▁enabling	-11.7732
▁colspan	-11.7732
▁backwards	-11.7732
▁oswald	-11.7733
▁greenwich	-11.7733
▁owns	-11.7734
fp	-11.7735
▁burma	-11.7736
leg	-11.7737
▁lone	-11.7738
kill	-11.7739
▁flip	-11.7741
▁diabetes	-11.7742
▁elimination	-11.7742
▁seymour	-11.7742
cephal	-11.7742
▁guaranteed	-11.7743
ilia	-11.7744
▁mack	-11.7746
kon	-11.7746
uku	-11.775
▁attain	-11.7753
igny	-11.7753
▁nathan	-11.7754
yat	-11.7754
aid	-11.7755
▁theorists	-11.7756
▁beth	-11.7759
other	-11.776
▁gardner	-11.7761
▁infinity	-11.7761
▁beloved	-11.7761
gat	-11.7761
▁cooperative	-11.7761
▁routing	-11.7762
▁debated	-11.7762
▁wavelength	-11.7763
load	-11.7763
▁defendant	-11.7764
til	-11.7768
▁probable	-11.777
▁lumber	-11.7771
▁emission	-11.7771
▁disciplines	-11.7771
chu	-11.7772
▁contend	-11.7776
▁counterparts	-11.7779
▁exterior	-11.778
eno	-11.7784
▁enacted	-11.7784
▁krishna	-11.7785
▁cake	-11.7785
evich	-11.7785
▁hun	-11.7786
▁accidents	-11.7788
fold	-11.7789
▁verde	-11.7789
▁synagogue	-11.7789
▁twilight	-11.779
▁traders	-11.7792
▁sunny	-11.7795
▁planted	-11.7795
▁dug	-11.7797
▁halt	-11.7797
▁calgary	-11.7799
▁westphalia	-11.7799
▁vacation	-11.7799
▁exercised	-11.78
▁premiere	-11.7801
fk	-11.7801
cept	-11.7801
slav	-11.7803
▁encounters	-11.7804
▁brien	-11.7806
▁vikings	-11.7806
▁highlighted	-11.7808
for	-11.7809
ustify	-11.7809
▁philo	-11.7813
▁shire	-11.7814
▁indirect	-11.7816
▁torn	-11.7816
▁drunk	-11.7818
▁destructive	-11.7818
▁portsmouth	-11.7818
▁expressway	-11.782
▁regulate	-11.7821
▁avoiding	-11.7821
▁believers	-11.7824
▁cri	-11.7826
cit	-11.7826
▁allah	-11.7827
▁helium	-11.7829
▁lineage	-11.783
▁ww	-11.7833
▁archer	-11.7836
▁steadily	-11.7837
▁antoine	-11.7837
▁reliability	-11.7837
▁legions	-11.7842
enna	-11.7843
▁promising	-11.7847
▁warming	-11.7849
▁limiting	-11.7849
rell	-11.785
▁cipher	-11.785
▁functionality	-11.7851
stock	-11.7852
web	-11.7858
cum	-11.7859
gno	-11.786
▁cambodia	-11.7866
▁alternating	-11.7866
▁breakthrough	-11.7866
▁pharaoh	-11.7866
▁aerospace	-11.7866
▁asserted	-11.7868
▁ranger	-11.7869
▁spice	-11.787
rg	-11.7871
▁nava	-11.7875
izes	-11.7875
▁kre	-11.7875
▁constituency	-11.7876
▁precipitation	-11.7876
▁pipes	-11.7877
▁interred	-11.7878
▁smile	-11.7878
▁congressman	-11.7878
▁byron	-11.7881
▁nicaragua	-11.7882
▁cit	-11.7883
▁preacher	-11.7883
ads	-11.7884
▁wartime	-11.7885
▁numbering	-11.7886
▁vein	-11.7887
room	-11.7889
▁racist	-11.7889
▁chilean	-11.7892
▁gaza	-11.7892
▁buzz	-11.7895
▁burgundy	-11.7895
▁licensing	-11.7895
▁monitoring	-11.7897
▁ballistic	-11.7899
▁parameter	-11.7899
▁haiti	-11.7902
▁tragic	-11.7904
corn	-11.7908
oko	-11.7908
anne	-11.7908
▁constraints	-11.7909
▁conviction	-11.7909
▁accepting	-11.791
▁firearms	-11.791
▁exhaust	-11.7913
▁trips	-11.7914
▁rpg	-11.7914
▁pho	-11.7917
▁hometown	-11.7923
▁holders	-11.7924
▁bh	-11.7928
cil	-11.7932
▁proceeds	-11.7932
▁kap	-11.7934
▁ceiling	-11.7934
▁crab	-11.7937
▁flour	-11.7939
▁lyc	-11.794
▁imaginary	-11.7944
▁convoy	-11.7944
▁pigeon	-11.7944
▁webpage	-11.7945
lich	-11.7946
▁barr	-11.7946
▁maid	-11.7948
ulie	-11.795
▁manifesto	-11.7951
▁suppressed	-11.7953
▁scrooge	-11.7954
▁approx	-11.7954
▁prayers	-11.7955
cos	-11.7955
▁nl	-11.7956
▁gradual	-11.7959
▁complaints	-11.796
▁pow	-11.796
▁wol	-11.7963
▁surveillance	-11.7963
illi	-11.7963
▁playoff	-11.7963
▁intact	-11.7964
char	-11.797
ific	-11.797
▁sixty	-11.7972
▁declaring	-11.7973
▁responses	-11.7973
▁watt	-11.7973
▁colonization	-11.7974
▁styled	-11.7976
▁alta	-11.7977
▁burr	-11.7978
▁intra	-11.7979
▁blamed	-11.7981
▁xvi	-11.7983
▁unstable	-11.7983
▁tudor	-11.7983
nal	-11.7984
▁approaching	-11.7985
▁fears	-11.7985
▁suits	-11.7987
▁civilizations	-11.799
▁aryan	-11.7992
▁sesame	-11.7993
▁viruses	-11.7996
cate	-11.7997
moto	-11.7998
▁meyer	-11.8001
▁impulse	-11.8002
▁refusal	-11.8002
▁senegal	-11.8002
▁strauss	-11.8002
▁fro	-11.8005
▁wen	-11.8006
▁toys	-11.8006
uator	-11.8007
▁ef	-11.8007
▁overwhelming	-11.8009
▁emma	-11.801
▁doo	-11.8011
phen	-11.8011
▁tunnels	-11.8013
▁automated	-11.8015
▁ashes	-11.802
▁andrea	-11.802
▁nursing	-11.8022
▁chariot	-11.8022
▁howe	-11.8022
elin	-11.8025
uito	-11.8025
▁thatcher	-11.8026
▁seminary	-11.8028
iba	-11.8029
▁unlimited	-11.8032
chel	-11.8033
usted	-11.8035
▁foul	-11.8035
▁marriages	-11.8035
▁cowboys	-11.8036
ography	-11.8039
▁regain	-11.8041
▁carpenter	-11.8042
▁flavour	-11.8042
ache	-11.8042
▁ska	-11.8043
▁undertaken	-11.8045
▁medici	-11.8046
▁surprisingly	-11.8046
▁benton	-11.8047
▁examined	-11.8047
▁duran	-11.8048
▁liberalism	-11.805
▁overhead	-11.805
▁rage	-11.805
uca	-11.8051
▁holstein	-11.8052
▁insulin	-11.8052
▁pigs	-11.8055
hausen	-11.8055
uat	-11.806
▁rin	-11.8061
▁mysteries	-11.8061
▁transparent	-11.8061
▁paragraph	-11.8061
▁sorts	-11.8061
▁denial	-11.8063
▁livestock	-11.8063
▁petty	-11.8063
▁denotes	-11.8064
▁graf	-11.8065
▁manifold	-11.8066
▁beard	-11.8067
ffer	-11.8067
▁angola	-11.8067
▁recruited	-11.8067
lian	-11.8067
▁senses	-11.8068
▁forrest	-11.8068
lv	-11.807
▁extant	-11.8072
▁missionaries	-11.8072
▁dante	-11.8075
▁laurel	-11.8077
▁zinc	-11.8078
eas	-11.8079
▁pala	-11.8081
▁plum	-11.8082
cock	-11.8084
odon	-11.8086
izz	-11.8086
▁challenger	-11.8087
▁lineup	-11.809
▁defenders	-11.809
▁crushed	-11.8092
▁monaco	-11.8092
bourg	-11.8095
▁lips	-11.8096
▁depicts	-11.8098
▁cock	-11.8099
▁shannon	-11.8101
dm	-11.8102
▁portraits	-11.8102
rna	-11.8102
▁cour	-11.8102
▁providence	-11.8102
mag	-11.8103
▁freeman	-11.8105
wise	-11.8105
vas	-11.8107
▁doll	-11.8107
▁demonstrations	-11.8107
▁serbs	-11.8109
has	-11.811
▁dana	-11.811
▁innovations	-11.8111
▁tens	-11.8112
▁rou	-11.8112
▁worms	-11.8113
▁unusually	-11.8114
pes	-11.8114
▁retains	-11.8116
▁calculation	-11.8116
▁shiva	-11.8116
eal	-11.8119
▁disastrous	-11.812
gor	-11.8127
aux	-11.8128
▁clare	-11.8132
▁pill	-11.8133
▁stunt	-11.8136
▁shy	-11.8136
▁augustine	-11.8137
▁midi	-11.8139
▁magnificent	-11.814
▁bordered	-11.8142
▁cultivated	-11.8144
▁zhou	-11.8146
wind	-11.8147
▁sketches	-11.815
olin	-11.815
▁bind	-11.8152
▁barnes	-11.8152
▁illustrations	-11.8153
▁prehistoric	-11.8156
agon	-11.8159
mur	-11.816
▁lightgreen	-11.816
▁honored	-11.8162
asi	-11.8165
▁brady	-11.8165
▁productive	-11.8165
▁emmy	-11.8165
▁livingston	-11.8165
▁guides	-11.8167
▁graduating	-11.817
▁satirical	-11.817
▁relocated	-11.8172
▁organizational	-11.8173
cot	-11.8174
uez	-11.8174
▁ober	-11.8179
elo	-11.8179
▁ensuing	-11.818
▁uncertainty	-11.8181
▁yemen	-11.8182
▁eliot	-11.8187
▁modules	-11.8188
hold	-11.8189
▁ret	-11.8189
▁woody	-11.8189
▁randy	-11.819
▁organizing	-11.8191
▁parrot	-11.8192
▁timor	-11.8192
▁sup	-11.8194
▁ubi	-11.8195
tree	-11.8197
▁casual	-11.8199
▁lightblue	-11.82
▁shirley	-11.82
mor	-11.8202
▁skater	-11.8203
▁goat	-11.8204
▁deliberate	-11.8204
bas	-11.8206
▁halls	-11.8207
▁murderer	-11.821
▁westward	-11.8212
▁loves	-11.8212
▁tornado	-11.8215
▁relied	-11.8216
▁assumptions	-11.8216
▁manipulation	-11.822
▁leisure	-11.822
rog	-11.8221
▁barber	-11.8226
▁functioning	-11.8227
▁mole	-11.8228
▁realize	-11.8228
▁mountainous	-11.8229
mt	-11.8233
▁locks	-11.8234
▁elderly	-11.8236
acket	-11.8237
graph	-11.8238
▁nickel	-11.824
▁anxiety	-11.824
▁continually	-11.8242
zin	-11.8244
dv	-11.8244
ewel	-11.8244
▁skeleton	-11.825
▁sting	-11.8251
▁cheek	-11.8252
▁underway	-11.8253
▁crust	-11.8254
▁spare	-11.8255
▁statues	-11.8257
zia	-11.8258
hom	-11.8259
▁gag	-11.8259
▁helsinki	-11.826
▁suffrage	-11.826
▁spatial	-11.826
▁lisbon	-11.826
sko	-11.8265
▁ori	-11.8268
▁buchanan	-11.827
▁tutor	-11.8271
see	-11.8271
▁committees	-11.8272
▁ozone	-11.8273
▁lawn	-11.8275
▁boer	-11.8275
▁vault	-11.8276
▁incarnation	-11.8277
ush	-11.8279
▁outward	-11.828
▁possibilities	-11.828
amb	-11.828
▁persistent	-11.828
▁colonists	-11.8281
▁invalid	-11.8282
▁opium	-11.8283
kins	-11.8283
▁affects	-11.8283
▁terminals	-11.8285
▁combines	-11.8288
mble	-11.8288
▁conn	-11.8291
▁glad	-11.8291
▁mice	-11.8294
▁auction	-11.8295
▁drinks	-11.8296
▁sacramento	-11.8296
▁differing	-11.8297
▁peculiar	-11.83
▁occult	-11.83
▁placement	-11.8301
▁synonymous	-11.8302
▁keel	-11.8304
ingham	-11.8306
▁wie	-11.8309
▁mentor	-11.8309
▁incumbent	-11.831
▁absorption	-11.831
▁toilet	-11.8311
▁osaka	-11.8312
▁gull	-11.8313
tam	-11.8313
▁induce	-11.8314
chus	-11.8316
▁symmetric	-11.8316
▁pakistani	-11.8317
▁ascii	-11.8322
het	-11.8322
esuit	-11.8323
▁dune	-11.8323
▁incorporates	-11.8325
▁urged	-11.8326
▁registers	-11.8326
uels	-11.833
▁feels	-11.833
▁affiliation	-11.833
▁techno	-11.8331
▁broadly	-11.8332
▁develops	-11.8334
▁reinforced	-11.8334
▁pg	-11.8335
worm	-11.8336
▁metaphor	-11.8337
ats	-11.8338
▁spar	-11.8338
▁substitution	-11.8341
nov	-11.8345
▁veto	-11.8346
lier	-11.8349
▁recommend	-11.8349
▁weakness	-11.835
▁asylum	-11.8351
▁clifford	-11.8351
▁processed	-11.8351
smith	-11.8352
isa	-11.8354
▁doctorate	-11.8354
▁sahara	-11.8356
▁distribute	-11.8357
▁indication	-11.8358
iers	-11.8358
▁surf	-11.8359
uke	-11.836
pic	-11.836
▁workshop	-11.836
▁potassium	-11.8361
▁buffer	-11.8361
eva	-11.8362
▁morton	-11.8362
storm	-11.8363
▁corp	-11.8365
rang	-11.8365
▁casting	-11.8366
▁oss	-11.8366
▁identifying	-11.8367
▁drafted	-11.8367
plane	-11.8367
▁discusses	-11.8369
▁hitchcock	-11.8371
▁euclidean	-11.8371
▁invaders	-11.8372
▁boycott	-11.8372
▁beans	-11.8374
▁tub	-11.8375
▁disbanded	-11.8375
▁sealed	-11.8375
▁carey	-11.8375
▁addressing	-11.8376
elia	-11.8377
▁archie	-11.8377
▁physicians	-11.8379
rich	-11.8381
▁bla	-11.8382
▁nicolas	-11.8385
eni	-11.8385
▁det	-11.8388
rn	-11.8388
▁hire	-11.839
▁physicists	-11.8391
vey	-11.8391
▁miniature	-11.8391
▁slash	-11.8391
▁commissioners	-11.8392
▁depot	-11.8392
▁homage	-11.8393
▁fischer	-11.8393
▁summers	-11.8393
▁ballad	-11.8394
etto	-11.8394
▁rs	-11.8397
▁amos	-11.8398
oco	-11.84
▁niger	-11.84
▁lob	-11.8401
▁buckingham	-11.8401
loo	-11.8405
▁tak	-11.8406
▁storms	-11.8407
▁fest	-11.8409
▁dramatist	-11.8409
lom	-11.841
▁memoir	-11.8411
mac	-11.8411
▁obey	-11.8412
▁exhibits	-11.8413
▁communes	-11.8414
▁chem	-11.8414
▁ard	-11.8414
ddle	-11.8416
dh	-11.8417
▁arises	-11.8418
▁analogy	-11.8419
▁winged	-11.8423
udged	-11.8424
▁conversely	-11.8424
eve	-11.8426
uti	-11.8427
▁viewer	-11.843
▁applicable	-11.8432
▁correlation	-11.8432
▁minesweeper	-11.8432
eremy	-11.8432
oll	-11.8433
▁ville	-11.8434
ambo	-11.8434
▁elliott	-11.8435
right	-11.8436
▁staged	-11.844
▁prizes	-11.8441
▁tilt	-11.8441
▁poisoning	-11.8441
▁dre	-11.8442
▁ordained	-11.8444
state	-11.8445
▁novelists	-11.8447
cken	-11.8447
aur	-11.8448
▁isabella	-11.8448
▁saxophone	-11.8452
▁underworld	-11.8457
beat	-11.8459
tem	-11.8459
▁withdrawn	-11.846
▁enforced	-11.8462
▁tournaments	-11.8465
▁proposition	-11.8466
▁barb	-11.8466
▁philipp	-11.8468
▁synonym	-11.847
iness	-11.8472
▁ck	-11.8473
▁derivation	-11.8473
▁bike	-11.8473
▁swimmer	-11.8473
▁premium	-11.8474
▁possessions	-11.8474
▁phones	-11.8476
▁maur	-11.8477
▁impose	-11.8477
▁token	-11.8481
▁exceptional	-11.8481
▁patriot	-11.8483
▁monmouth	-11.8484
▁referenced	-11.8484
bet	-11.8484
▁apostolic	-11.8486
▁digest	-11.8487
▁reef	-11.8487
▁cables	-11.8487
▁intimate	-11.8487
▁holly	-11.8488
▁loch	-11.849
▁theodor	-11.8492
▁cul	-11.8493
▁eighteenth	-11.8494
▁fortified	-11.8495
▁comprise	-11.8495
▁wages	-11.8498
▁madame	-11.8498
▁prophets	-11.8499
▁emphasized	-11.85
▁potato	-11.85
▁mick	-11.8501
▁outline	-11.8502
▁nai	-11.8503
▁fission	-11.8504
▁cata	-11.8505
rei	-11.8505
▁stopping	-11.8506
▁herb	-11.8507
▁hartford	-11.8508
▁willow	-11.8509
▁vale	-11.8509
city	-11.8509
▁vit	-11.8512
▁lexington	-11.8514
▁stall	-11.8515
▁conferences	-11.8516
▁donkey	-11.8516
oey	-11.8518
▁superhero	-11.8519
vol	-11.852
▁nasal	-11.8521
▁accompanying	-11.8522
oids	-11.8524
eda	-11.8524
▁interrupted	-11.8524
▁wolfgang	-11.8524
lev	-11.8525
▁clinic	-11.8526
▁lethal	-11.8527
▁somehow	-11.8528
▁orient	-11.8528
▁evolve	-11.8528
gl	-11.8528
rine	-11.8529
uartered	-11.8531
▁blessing	-11.8532
▁hale	-11.8533
▁shame	-11.8534
▁pedestrian	-11.8535
▁dresden	-11.8535
▁baba	-11.8535
▁cleared	-11.8535
▁gur	-11.8536
▁erotic	-11.8536
▁enclosed	-11.8536
▁granite	-11.8539
▁neg	-11.854
▁prevents	-11.854
scher	-11.854
▁standardized	-11.8541
▁sca	-11.8542
▁palestinians	-11.8542
tec	-11.8542
▁mandatory	-11.8545
▁orthodoxy	-11.8545
▁coaches	-11.8546
ifies	-11.8547
▁analytic	-11.855
▁publishes	-11.8552
▁fir	-11.8553
▁midwest	-11.8556
ulu	-11.8557
▁hoping	-11.8557
▁theoretically	-11.8561
▁winters	-11.8561
▁lifted	-11.8562
▁hz	-11.8562
▁nationalists	-11.8562
▁prof	-11.8563
akh	-11.8564
▁phillip	-11.8564
▁knox	-11.8565
▁compatibility	-11.8565
▁grandmother	-11.8566
▁underneath	-11.8566
▁deaf	-11.8566
▁stationed	-11.857
▁horns	-11.8572
▁subgroup	-11.8577
▁nico	-11.858
▁instituted	-11.858
▁chal	-11.8581
▁unitary	-11.8582
▁kei	-11.8582
press	-11.8585
▁representations	-11.8586
▁excluding	-11.8586
nga	-11.8587
▁rosen	-11.859
yle	-11.8595
▁cope	-11.8596
▁destroyers	-11.8596
▁prestige	-11.8597
▁carthage	-11.8597
▁facial	-11.8597
▁firmly	-11.8599
▁bil	-11.8599
▁beats	-11.8603
▁seventeen	-11.8604
▁ramp	-11.8606
▁cantonese	-11.8608
▁acknowledge	-11.8608
mg	-11.8608
▁afc	-11.8608
▁emotions	-11.861
▁whales	-11.8612
▁flock	-11.8612
▁ufo	-11.8613
eaux	-11.8615
▁presently	-11.8616
crat	-11.8616
▁pharmaceutical	-11.8617
▁foe	-11.8618
cz	-11.8618
▁beetle	-11.8619
▁toledo	-11.8621
▁remnants	-11.8621
▁estonian	-11.8624
stan	-11.8625
hop	-11.8628
▁brabant	-11.8628
▁semitism	-11.8628
▁eurovision	-11.8628
▁courthouse	-11.8628
ddy	-11.8629
▁outlaw	-11.863
▁affecting	-11.863
cro	-11.863
▁boots	-11.8631
▁shadows	-11.8632
▁garde	-11.8635
▁determines	-11.8637
▁antony	-11.8637
▁scream	-11.8638
▁humanitarian	-11.8638
▁bedroom	-11.8639
▁clockwise	-11.8639
▁thank	-11.864
▁concentrations	-11.864
▁peri	-11.8643
▁fare	-11.8645
▁clip	-11.8645
ures	-11.8646
▁instructor	-11.8646
▁orbits	-11.8648
▁disadvantage	-11.8649
▁gutenberg	-11.8649
▁zhu	-11.8649
tell	-11.8651
▁backward	-11.8655
dus	-11.8655
▁commented	-11.8659
elly	-11.8659
▁boulder	-11.8659
▁disabled	-11.8661
▁axioms	-11.8661
▁insert	-11.8663
▁moe	-11.8663
▁successors	-11.8664
hav	-11.8667
▁hindi	-11.8668
orative	-11.8669
▁precursor	-11.867
▁monasteries	-11.867
▁catalonia	-11.867
▁additive	-11.867
▁leigh	-11.867
▁taiwanese	-11.867
▁hara	-11.8671
▁chapman	-11.8672
▁wh	-11.8673
pole	-11.8674
▁celebrations	-11.8676
tun	-11.8677
▁terrace	-11.8677
▁cello	-11.868
▁abnormal	-11.868
▁buenos	-11.868
▁incredible	-11.868
▁dracula	-11.868
▁subdivided	-11.868
▁tt	-11.8681
unct	-11.8682
assi	-11.8682
▁diagnosed	-11.8682
▁lav	-11.8682
▁painful	-11.8685
▁hunters	-11.8686
▁cement	-11.8687
▁bulletin	-11.869
▁eligible	-11.8691
▁psychiatric	-11.8691
▁comparing	-11.8691
▁lyn	-11.8692
▁concord	-11.8692
rand	-11.8697
▁fry	-11.8698
▁announces	-11.8698
atar	-11.8699
▁ambiguous	-11.8701
▁ric	-11.8702
▁attained	-11.8702
▁annexation	-11.8703
▁inspection	-11.8704
kes	-11.8704
mates	-11.8704
tow	-11.8705
▁kinetic	-11.8706
▁emb	-11.8708
ehovah	-11.8711
▁upcoming	-11.8712
▁demographic	-11.8712
▁spray	-11.8713
▁panzer	-11.8713
▁dayton	-11.8719
▁disciples	-11.8721
▁stevenson	-11.8721
▁lockheed	-11.8722
▁mythical	-11.8722
▁translator	-11.8722
glyph	-11.8724
▁interrupt	-11.8727
▁aut	-11.8729
kl	-11.873
▁exploit	-11.873
▁pushing	-11.8732
▁reminiscent	-11.8733
▁refined	-11.8734
▁wouldn	-11.8735
▁behave	-11.8736
oker	-11.8736
iger	-11.8737
▁foil	-11.874
▁gol	-11.8741
▁overlap	-11.8742
▁swim	-11.8742
▁apprentice	-11.8743
▁thursday	-11.8743
▁morwen	-11.8743
▁dawson	-11.8744
▁menu	-11.8744
▁tick	-11.8744
eter	-11.8746
▁sf	-11.8747
lies	-11.8747
▁bruno	-11.8747
mul	-11.8748
▁switches	-11.8748
graphic	-11.8752
▁principally	-11.8756
ont	-11.8757
▁pupil	-11.8757
▁breton	-11.8758
▁proc	-11.8758
▁aires	-11.8762
udice	-11.8763
▁dancers	-11.8763
▁lorraine	-11.8764
▁discount	-11.8764
▁enlarged	-11.8766
▁sink	-11.8767
elecommunication	-11.877
lid	-11.8771
strat	-11.8772
▁merc	-11.8772
uw	-11.8773
aris	-11.8774
▁schleswig	-11.8775
▁explosives	-11.8775
▁explanations	-11.8775
▁commemorate	-11.8778
▁hoc	-11.8779
▁lao	-11.878
▁botanical	-11.878
▁rows	-11.878
bourne	-11.8781
▁blades	-11.8782
pit	-11.8783
▁nautical	-11.8785
▁pentagon	-11.8785
▁crosby	-11.8785
▁chef	-11.8786
▁pilgrimage	-11.8786
▁airfield	-11.879
▁laurent	-11.8791
▁trench	-11.8791
▁vec	-11.8792
▁tracking	-11.8793
▁starship	-11.8794
▁bells	-11.8794
▁bizarre	-11.8796
▁vicinity	-11.8796
▁wreck	-11.8797
▁tunisia	-11.88
iest	-11.8801
▁buddy	-11.8802
▁rey	-11.8802
▁launching	-11.8802
uar	-11.8802
▁deposit	-11.8804
pol	-11.8804
▁abundance	-11.8806
▁dwight	-11.8806
chal	-11.8809
▁woodland	-11.881
▁emerge	-11.8811
▁weakened	-11.8811
cker	-11.8817
▁proclamation	-11.8817
▁auckland	-11.8817
▁slaughter	-11.8817
▁surgical	-11.8817
▁depiction	-11.8819
▁walked	-11.882
▁noon	-11.8825
▁pf	-11.8826
▁resonance	-11.8828
▁archaic	-11.8828
▁nebula	-11.8828
pon	-11.8828
ull	-11.8829
▁orchestral	-11.8829
▁exploitation	-11.8829
▁antarctica	-11.8829
▁habits	-11.8829
▁pul	-11.8831
▁arn	-11.8833
▁pose	-11.8833
▁grouped	-11.8836
▁sche	-11.8838
▁dudley	-11.8838
▁refusing	-11.8838
enia	-11.8839
▁spreading	-11.8839
lm	-11.8839
▁garfield	-11.8841
▁percy	-11.8841
▁disagree	-11.8841
▁benny	-11.8842
▁endless	-11.8848
▁etruscan	-11.8849
▁warlord	-11.8849
▁scenic	-11.8849
▁venetian	-11.8849
▁hilbert	-11.8849
▁tutorial	-11.8849
▁granada	-11.8849
some	-11.8852
zar	-11.8854
▁reilly	-11.8855
▁dell	-11.8855
▁vaccine	-11.886
▁factbook	-11.8863
▁walton	-11.8864
▁gaius	-11.8865
▁converting	-11.8865
▁lust	-11.8868
▁alf	-11.8868
▁descend	-11.8868
▁undergo	-11.8869
ania	-11.8869
▁advancement	-11.8872
▁envelope	-11.8873
▁neighbours	-11.8873
▁structured	-11.8873
▁cliffs	-11.8874
▁surgeon	-11.8874
ointly	-11.8876
▁rites	-11.8876
▁fitting	-11.8877
▁levy	-11.8877
woman	-11.8878
▁graduates	-11.8878
▁mafia	-11.8881
▁exhibited	-11.8881
▁minimize	-11.8881
▁gala	-11.8881
▁masterpiece	-11.8881
▁demise	-11.8882
▁prot	-11.8882
▁hormone	-11.8883
▁regards	-11.8885
▁irc	-11.8886
zhou	-11.8887
poli	-11.889
▁valencia	-11.8892
▁yearly	-11.8892
▁spherical	-11.8892
▁capitals	-11.8893
▁brighton	-11.8894
▁presley	-11.8895
▁zan	-11.8898
▁suppress	-11.89
erre	-11.8901
▁eminent	-11.8902
▁wednesday	-11.8902
▁astronomers	-11.8904
▁pressures	-11.8906
burgh	-11.8907
▁gong	-11.8908
▁plea	-11.8908
▁papa	-11.8909
▁sham	-11.8909
▁negotiated	-11.8909
▁hin	-11.891
▁complications	-11.8911
▁mesopotamia	-11.8913
eme	-11.8923
▁asimov	-11.8924
▁adverse	-11.8925
▁admit	-11.8928
▁humanist	-11.8934
▁scriptures	-11.8934
▁advocacy	-11.8934
▁commodities	-11.8934
▁ribbon	-11.8935
▁vacant	-11.8935
▁hastings	-11.8936
▁fulton	-11.8936
▁monty	-11.8937
▁mistaken	-11.8938
▁upgrade	-11.8943
cation	-11.8943
▁tesla	-11.8946
wel	-11.8946
▁rescued	-11.8948
▁weaver	-11.8949
▁laying	-11.8951
enni	-11.8952
▁transcript	-11.8955
▁leicester	-11.8956
▁automobiles	-11.8956
now	-11.8958
▁employers	-11.8958
▁assignment	-11.8959
▁mona	-11.8959
▁panels	-11.8962
▁desk	-11.8963
▁obligations	-11.8966
▁hannibal	-11.8967
▁illegitimate	-11.8967
▁hercules	-11.8967
▁panther	-11.8968
▁neville	-11.8968
▁decoration	-11.8969
▁sweep	-11.8972
▁chill	-11.8974
▁willis	-11.8976
ualify	-11.8977
▁witnessed	-11.8977
▁shipyard	-11.8978
▁melting	-11.8979
▁hunger	-11.8983
▁principality	-11.8984
▁galileo	-11.8988
▁inevitable	-11.8988
anti	-11.8991
▁denomination	-11.8993
▁beside	-11.8993
▁intake	-11.8995
▁dump	-11.8996
▁riverside	-11.8996
▁rover	-11.8997
▁satisfy	-11.8998
▁amplitude	-11.8999
▁cryptography	-11.8999
acksonian	-11.9004
had	-11.9005
oul	-11.9005
croft	-11.9006
▁pir	-11.9006
atta	-11.9007
▁popes	-11.9007
fort	-11.9007
▁tear	-11.9008
▁friedman	-11.9008
▁insufficient	-11.901
▁distress	-11.901
▁simplicity	-11.901
▁bisexual	-11.901
▁coleman	-11.901
▁regained	-11.9011
▁considerations	-11.9013
▁ought	-11.9013
▁lambert	-11.9013
▁desperate	-11.9015
▁dil	-11.9016
▁onset	-11.9017
ein	-11.9019
hoff	-11.9019
▁hut	-11.9019
▁remix	-11.902
▁mosaic	-11.9021
▁duplicate	-11.9021
▁encryption	-11.9021
▁seldom	-11.9021
▁ez	-11.9022
▁fauna	-11.9023
▁paulo	-11.9024
▁curious	-11.9026
▁progression	-11.9028
mere	-11.9029
▁rhyme	-11.9029
▁posterior	-11.9032
▁bradford	-11.9032
▁lunch	-11.9034
▁canvas	-11.9035
▁enlisted	-11.9037
▁nominations	-11.9038
▁forecast	-11.9038
▁maha	-11.9039
▁holdings	-11.9039
▁seize	-11.9039
pid	-11.904
▁assign	-11.904
▁apostles	-11.9042
rik	-11.9043
uiz	-11.9044
▁parkway	-11.9045
▁utilize	-11.9046
lett	-11.9048
▁url	-11.9049
▁nim	-11.905
▁bates	-11.905
name	-11.905
▁worthy	-11.9051
▁dice	-11.9052
▁locomotives	-11.9052
▁afraid	-11.9053
▁rai	-11.9053
▁victorious	-11.9054
▁walks	-11.9054
▁tz	-11.9055
sted	-11.9056
▁laos	-11.9057
▁submit	-11.9057
▁shields	-11.9057
▁sack	-11.9063
▁lore	-11.9063
▁exeter	-11.9065
▁annie	-11.9065
▁yacht	-11.9066
▁peasant	-11.9067
▁appoint	-11.9067
▁touchdown	-11.9068
▁originating	-11.9068
▁mgm	-11.907
▁insane	-11.907
▁rigorous	-11.907
▁taka	-11.9072
▁fibers	-11.9074
▁cis	-11.9075
▁optimal	-11.9075
▁cottage	-11.9075
▁sioux	-11.9075
word	-11.9076
▁flav	-11.9077
▁diminished	-11.9079
eux	-11.9085
▁antwerp	-11.9086
▁versailles	-11.9086
▁kazakhstan	-11.9086
▁compelled	-11.9087
eria	-11.9088
▁bowling	-11.9089
wang	-11.9092
▁manages	-11.9092
▁surprised	-11.9092
▁ordering	-11.9093
cent	-11.9097
▁drought	-11.9097
▁unc	-11.9097
▁hatred	-11.9098
▁stronghold	-11.9098
▁crypt	-11.91
dc	-11.91
lines	-11.9102
ographic	-11.9104
▁slayer	-11.9104
▁liked	-11.9112
ender	-11.9114
eti	-11.9114
▁insect	-11.9114
cis	-11.9115
chet	-11.9115
▁monica	-11.9116
▁straw	-11.9118
▁inhabit	-11.9119
▁unfinished	-11.9119
▁captivity	-11.9119
▁presumed	-11.912
▁precious	-11.912
▁wwf	-11.9122
▁plots	-11.9122
▁tidal	-11.9123
▁naturalist	-11.9124
▁bak	-11.9126
▁reasonably	-11.9132
▁collectors	-11.9132
▁offset	-11.9135
kle	-11.9136
kas	-11.9136
ifying	-11.9137
▁install	-11.9139
▁specify	-11.9139
▁patterson	-11.9141
▁kashmir	-11.9141
▁intercourse	-11.9141
▁longitude	-11.9142
▁neural	-11.9142
▁adherents	-11.9143
▁shake	-11.9144
▁honors	-11.9145
▁gentle	-11.9145
▁lend	-11.9145
▁teaches	-11.9145
▁uv	-11.9151
▁spill	-11.9151
▁institutional	-11.9151
▁lafayette	-11.9151
▁amusement	-11.9151
▁contracted	-11.9154
kha	-11.9154
▁richards	-11.9155
▁scenario	-11.9156
tral	-11.9156
▁bard	-11.9156
▁spi	-11.9157
▁ghana	-11.916
▁radi	-11.916
▁emissions	-11.916
▁mic	-11.9161
▁presenting	-11.9161
▁dependence	-11.9163
▁sally	-11.9164
▁scarce	-11.9165
▁maneuver	-11.9167
▁clair	-11.9169
▁dm	-11.917
dog	-11.917
▁caps	-11.9171
▁lud	-11.9172
llo	-11.9175
▁promises	-11.9176
ctor	-11.9181
thon	-11.9183
▁railroads	-11.9183
▁corona	-11.9184
▁fascism	-11.9185
▁messiah	-11.9185
▁zoe	-11.9185
▁halo	-11.9189
lix	-11.9191
▁spinal	-11.9191
▁dys	-11.9193
▁introduces	-11.9194
▁curriculum	-11.9195
▁encouraging	-11.9195
▁literacy	-11.9195
▁pottery	-11.9196
▁talented	-11.9197
▁abelian	-11.9197
▁hoax	-11.9197
ometer	-11.9199
ihad	-11.9201
▁proving	-11.9201
▁unexpected	-11.9201
oso	-11.9201
▁tapes	-11.9203
▁advisory	-11.9206
▁tuesday	-11.9206
uvenile	-11.9207
▁russ	-11.9207
▁alley	-11.9209
▁cara	-11.9211
uay	-11.9211
▁farther	-11.9212
▁troubles	-11.9213
▁pest	-11.9215
vid	-11.9217
▁curved	-11.9217
▁mohammed	-11.9218
via	-11.9218
▁siberia	-11.922
gos	-11.9221
▁formations	-11.9222
▁surprising	-11.9223
▁sith	-11.9224
▁networking	-11.9227
▁hosting	-11.9227
▁strand	-11.9229
▁optics	-11.9229
▁bombardment	-11.9229
▁zh	-11.9232
▁starr	-11.9232
▁currents	-11.9233
▁stepped	-11.9235
▁expenditures	-11.9236
▁translates	-11.9238
sam	-11.9238
▁investigated	-11.9238
▁nirvana	-11.924
▁accidental	-11.9241
▁ginger	-11.9242
amie	-11.9242
▁nordic	-11.9243
▁embrace	-11.9244
▁boiling	-11.9246
▁amd	-11.9246
▁heroin	-11.9246
cla	-11.9247
▁lacks	-11.9247
▁treating	-11.9248
▁stranger	-11.9248
▁relies	-11.9249
▁modify	-11.925
▁threshold	-11.9251
ubilee	-11.9251
west	-11.9251
▁granting	-11.9251
emia	-11.9252
nac	-11.9253
▁sinking	-11.9254
▁bunker	-11.9256
▁profitable	-11.9256
▁backup	-11.9259
▁tanzania	-11.9262
▁dra	-11.9264
▁castles	-11.9266
▁alarm	-11.9271
▁liber	-11.9273
▁prescription	-11.9273
▁pioneered	-11.9274
▁marvin	-11.9277
▁gentleman	-11.9278
▁artery	-11.928
▁harmful	-11.928
ically	-11.9281
▁lis	-11.9282
oshi	-11.9282
iwa	-11.9283
▁tactic	-11.929
▁lonely	-11.929
late	-11.9291
▁louisville	-11.9293
▁mala	-11.9298
▁petr	-11.93
▁converts	-11.9301
▁garage	-11.9301
aging	-11.9304
▁crews	-11.9304
▁wat	-11.9304
▁ching	-11.9308
▁lungs	-11.9308
train	-11.9309
▁pear	-11.9311
kat	-11.9311
▁alias	-11.9313
▁tong	-11.9314
▁songwriters	-11.9314
▁constitutes	-11.9314
▁cali	-11.9315
▁brig	-11.9315
eil	-11.9316
▁fringe	-11.9317
▁milo	-11.9317
▁laboratories	-11.9317
▁beverly	-11.9317
▁swallow	-11.9318
▁anakin	-11.9319
▁dt	-11.932
▁sunlight	-11.932
▁stiff	-11.932
▁ned	-11.9321
▁trump	-11.9325
▁restrict	-11.9327
▁epidemic	-11.9329
▁exclude	-11.9333
▁francesco	-11.9333
▁hazard	-11.9334
▁somalia	-11.9335
▁predecessors	-11.9336
▁pom	-11.9337
▁slopes	-11.9338
▁challenging	-11.934
▁confederacy	-11.934
▁captive	-11.9341
▁polls	-11.9341
ensen	-11.9341
▁nero	-11.9343
▁avant	-11.9344
▁incorrectly	-11.9348
uential	-11.9349
unda	-11.935
▁delegation	-11.9351
▁icons	-11.9353
▁republics	-11.9353
gm	-11.9356
▁shed	-11.9356
▁watched	-11.9359
uakes	-11.936
lt	-11.9362
▁wash	-11.9363
▁graduation	-11.9363
▁gis	-11.9364
▁lever	-11.9365
▁tips	-11.9365
▁wwe	-11.9366
▁wah	-11.9367
▁arrows	-11.9367
▁aligned	-11.9369
▁pixel	-11.9372
▁nap	-11.9373
▁edmonton	-11.9373
kr	-11.9374
▁deco	-11.9374
ario	-11.9375
▁lengths	-11.9375
▁failures	-11.9377
▁assumes	-11.9378
▁helicopters	-11.9378
uant	-11.9379
▁cleaning	-11.938
▁abel	-11.9382
lith	-11.9384
▁lebanese	-11.9385
▁haw	-11.9385
▁grouping	-11.9385
▁saddle	-11.9386
▁xin	-11.9388
▁wears	-11.9388
▁uruguay	-11.9389
▁hogan	-11.9389
▁spawned	-11.939
▁transmitter	-11.9392
▁martian	-11.9392
▁banana	-11.9395
tier	-11.9396
▁tattoo	-11.9396
▁capturing	-11.9396
▁sustainable	-11.9397
pf	-11.9397
▁knocked	-11.9399
ays	-11.9401
▁prediction	-11.9404
aver	-11.9404
▁trotsky	-11.9405
▁noir	-11.9406
▁convenience	-11.9407
▁sinclair	-11.9407
▁unprecedented	-11.9407
▁garbage	-11.9407
▁correspondent	-11.9411
▁suck	-11.9412
▁partisan	-11.9414
▁bec	-11.9414
▁parity	-11.9414
▁lau	-11.9415
▁permits	-11.9416
▁grad	-11.9417
▁tha	-11.9418
asse	-11.9418
▁kidnapped	-11.9418
▁horace	-11.9419
ffe	-11.9419
▁embryo	-11.942
sund	-11.9421
▁weaker	-11.9422
▁negotiate	-11.9422
▁greens	-11.9423
▁amendments	-11.9423
▁infections	-11.9425
▁herzegovina	-11.943
▁rhythmic	-11.9431
▁customary	-11.9431
▁unrest	-11.9432
▁franks	-11.9432
▁euler	-11.9434
▁premise	-11.9434
ugh	-11.9434
bby	-11.9435
▁cafe	-11.9435
▁gul	-11.9436
hc	-11.9437
▁canals	-11.9443
▁indirectly	-11.9447
▁cowboy	-11.9448
▁trainer	-11.9448
▁huntington	-11.9448
▁nationally	-11.9449
▁psychic	-11.945
▁kemp	-11.945
▁trusted	-11.9451
▁dots	-11.9451
icular	-11.9451
▁boarding	-11.9451
ianus	-11.9452
▁beneficial	-11.9452
▁useless	-11.9459
▁acad	-11.946
corp	-11.9461
▁prolonged	-11.9466
▁highlight	-11.9468
▁pins	-11.9468
▁competitor	-11.947
mura	-11.9472
▁tir	-11.9473
▁refuses	-11.9474
uinn	-11.9475
▁koch	-11.9476
nto	-11.9477
▁cooked	-11.9477
▁imagery	-11.9478
arth	-11.9479
▁lima	-11.948
▁occupying	-11.9481
▁mw	-11.9482
▁puritan	-11.9486
iza	-11.9487
▁salon	-11.9489
▁orchard	-11.949
▁barton	-11.949
▁pronounce	-11.9492
aguar	-11.9495
▁vegetarian	-11.9496
▁hardcover	-11.9498
▁kron	-11.9498
▁papua	-11.9499
▁crete	-11.9499
▁sleeve	-11.9499
▁snap	-11.9499
▁mali	-11.9502
tit	-11.9503
▁byte	-11.9503
▁affection	-11.9505
▁patricia	-11.9507
▁uniforms	-11.9507
▁portfolio	-11.9509
▁cycling	-11.9509
▁pistol	-11.951
▁tissues	-11.9514
▁nude	-11.9514
▁bour	-11.9516
▁postage	-11.9521
inae	-11.9522
▁alba	-11.9525
▁pays	-11.9526
▁nuts	-11.9527
▁matsu	-11.9529
ition	-11.9529
ais	-11.953
tol	-11.9531
▁peruvian	-11.9532
ueror	-11.9532
type	-11.9533
▁generalized	-11.9533
▁casa	-11.9533
▁collaborated	-11.9534
▁gc	-11.9535
lik	-11.9536
▁marching	-11.9537
▁hab	-11.9541
▁amor	-11.9542
▁arpingstone	-11.9543
▁bismarck	-11.9543
▁charlemagne	-11.9543
aeda	-11.9544
▁stripped	-11.9544
▁anticipated	-11.9545
▁morse	-11.9547
kara	-11.9547
▁posthumously	-11.9548
▁peg	-11.9549
▁militant	-11.9551
▁stro	-11.9553
▁imdb	-11.9555
▁brotherhood	-11.9556
▁lombard	-11.9558
trans	-11.9559
▁blown	-11.9562
▁ada	-11.9563
▁marina	-11.9563
▁occupies	-11.9566
▁twelfth	-11.9566
hard	-11.9567
▁patriotic	-11.9567
▁conclusions	-11.9568
▁pedal	-11.957
▁campuses	-11.9571
▁miners	-11.9573
yang	-11.9575
▁professors	-11.9576
▁unnecessary	-11.9577
enko	-11.9579
▁ceded	-11.9581
▁premiered	-11.9582
▁doyle	-11.9582
▁loans	-11.9583
▁broadcaster	-11.9583
▁wounds	-11.9584
ider	-11.9585
▁proton	-11.9586
▁discs	-11.9586
▁smash	-11.959
▁capsule	-11.9592
▁greenwood	-11.9593
enz	-11.9593
▁brutal	-11.9594
▁torch	-11.9597
▁modeling	-11.9597
▁vid	-11.9597
▁virgil	-11.96
▁apache	-11.9601
▁della	-11.9601
▁chloride	-11.9602
▁reunited	-11.9602
mill	-11.9603
▁enrolled	-11.9604
▁retaining	-11.9608
wh	-11.961
▁certification	-11.9612
▁devastating	-11.9612
▁imperfect	-11.9612
▁precedent	-11.9612
ete	-11.9612
▁talents	-11.9613
▁villains	-11.9614
litz	-11.9614
▁sainte	-11.9619
bone	-11.9621
▁filters	-11.9622
▁astrology	-11.9623
▁semantics	-11.9624
cycl	-11.9625
▁perceive	-11.9625
▁coinage	-11.9626
▁companions	-11.9626
▁kle	-11.9626
▁defender	-11.9627
▁lys	-11.9627
▁alexandra	-11.9628
▁lease	-11.963
▁elevator	-11.9632
▁kri	-11.9635
▁preliminary	-11.9635
▁insignia	-11.9635
▁disks	-11.9635
▁usenet	-11.9635
▁floppy	-11.9636
▁folded	-11.9638
ways	-11.9639
▁exceed	-11.9644
▁culturally	-11.9645
▁propagation	-11.9646
▁emerson	-11.9647
▁turret	-11.9647
▁stripes	-11.9648
▁bats	-11.965
▁witt	-11.9651
▁embarked	-11.9651
▁intentionally	-11.9652
▁happening	-11.9655
▁trim	-11.9656
▁mock	-11.9656
▁confront	-11.9658
▁butterfly	-11.9658
▁damaging	-11.9658
▁extraction	-11.966
▁gus	-11.9661
vir	-11.9662
▁kerr	-11.9664
▁spontaneous	-11.9664
▁receptors	-11.9664
uatic	-11.9666
▁appealed	-11.9667
▁custody	-11.9669
▁chelsea	-11.9669
▁rupert	-11.967
▁burgess	-11.967
▁mothers	-11.9671
▁gam	-11.9672
▁rack	-11.9673
▁packages	-11.9674
▁canoe	-11.9674
▁clayton	-11.9677
uor	-11.9677
▁melan	-11.9677
▁darker	-11.9678
pho	-11.9679
▁noah	-11.9679
[...]
